<unk>	0
<s>	0
</s>	0
<pad>	0
▁là	-4.09515
▁có	-4.2065
▁không	-4.26894
▁một	-4.36553
▁của	-4.42644
▁và	-4.49678
▁người	-4.62519
▁tôi	-4.77447
▁được	-4.83691
▁những	-4.87639
▁cho	-4.92755
▁trong	-4.9573
▁đã	-5.03198
▁thì	-5.07735
▁mà	-5.0799
▁này	-5.09337
▁với	-5.09829
▁đó	-5.1134
▁mình	-5.12208
▁như	-5.15395
▁cũng	-5.15835
▁ta	-5.17808
▁ra	-5.18158
▁các	-5.1978
▁thể	-5.22191
▁anh	-5.22776
▁lại	-5.23387
▁để	-5.23869
▁bạn	-5.25461
▁cái	-5.25644
▁sẽ	-5.302
▁làm	-5.34808
▁phải	-5.36524
▁con	-5.39816
▁đến	-5.41154
▁khi	-5.41637
▁đi	-5.43854
▁chúng	-5.46316
▁nói	-5.46504
▁ở	-5.48969
▁nhưng	-5.5021
▁về	-5.51725
▁nó	-5.58269
▁sự	-5.61305
▁thế	-5.61617
▁vào	-5.64047
▁gì	-5.65633
▁chỉ	-5.70915
▁em	-5.71314
▁còn	-5.72849
▁rồi	-5.73477
▁công	-5.74886
▁việc	-5.77672
▁	-5.78584
▁ông	-5.78704
▁thấy	-5.80388
▁nào	-5.80989
▁từ	-5.81668
▁đầu	-5.82945
▁cô	-5.82999
▁hai	-5.83182
▁biết	-5.83618
▁nhiều	-5.83686
▁cả	-5.84792
▁họ	-5.86674
▁thành	-5.91187
▁rất	-5.91664
▁hơn	-5.94221
▁vậy	-5.94412
▁nhà	-5.95522
▁vì	-5.97448
▁đây	-5.97598
▁sau	-5.99784
▁điều	-6.00749
▁bị	-6.01575
▁trên	-6.0591
▁nên	-6.08424
▁chính	-6.08437
▁giờ	-6.11303
▁lên	-6.13112
▁ngày	-6.14175
▁đang	-6.14458
▁nhất	-6.14708
▁sao	-6.14739
▁năm	-6.15169
▁cách	-6.15729
▁khác	-6.16125
▁quan	-6.17338
▁mới	-6.17855
▁nếu	-6.1793
▁hiện	-6.19186
▁nhân	-6.20738
▁muốn	-6.21462
▁rằng	-6.23757
▁theo	-6.24065
▁trước	-6.24596
▁học	-6.2475
▁cùng	-6.24901
▁cảm	-6.25026
▁thời	-6.27383
▁hay	-6.27608
▁tại	-6.30211
▁động	-6.30332
▁ấy	-6.30817
▁nữa	-6.32371
▁qua	-6.35869
▁thực	-6.36731
▁nhận	-6.36993
▁chuyện	-6.38312
▁lúc	-6.39272
▁định	-6.39944
▁sống	-6.4133
▁ý	-6.41836
▁nhìn	-6.41974
▁vẫn	-6.41996
▁tự	-6.42028
▁cuộc	-6.43634
▁tới	-6.44542
▁cần	-6.45062
▁số	-6.47079
▁thứ	-6.47509
▁mọi	-6.48227
▁nghĩ	-6.49127
▁mẹ	-6.49204
▁nước	-6.50146
▁tâm	-6.50279
▁gia	-6.50985
▁mặt	-6.51202
▁đồng	-6.51298
▁ba	-6.5135
▁đối	-6.51635
▁lý	-6.52049
▁tình	-6.53583
▁bản	-6.53973
▁quá	-6.54349
▁hàng	-6.56056
▁ai	-6.56488
▁thân	-6.58213
▁bà	-6.58369
▁tin	-6.60058
▁tiếp	-6.61467
▁nhiên	-6.61491
▁ăn	-6.62092
▁trở	-6.62926
▁đều	-6.63163
▁thật	-6.63586
▁tay	-6.65454
▁chưa	-6.66231
▁bên	-6.66402
▁thường	-6.68412
▁nhau	-6.68468
▁lớn	-6.69148
▁cơ	-6.69205
▁bằng	-6.6921
▁bộ	-6.69471
▁hình	-6.6958
▁hành	-6.70234
▁phát	-6.70745
▁lần	-6.70803
▁sinh	-6.70818
▁đâu	-6.70824
▁thôi	-6.71931
▁do	-6.73227
▁năng	-6.73436
▁nay	-6.73478
▁hỏi	-6.73716
▁yêu	-6.73907
▁tìm	-6.74474
▁hết	-6.74671
▁câu	-6.7521
▁lời	-6.75488
▁chị	-6.75553
▁trường	-6.75657
▁luôn	-6.75811
▁vị	-6.75975
▁bao	-6.76094
▁nghe	-6.76143
▁đường	-6.7649
▁tiền	-6.77317
▁lực	-6.77451
▁gian	-6.77458
▁hắn	-6.77812
▁đại	-6.78915
▁phần	-6.79409
▁toàn	-6.79649
▁bắt	-6.81274
▁bất	-6.81578
▁tất	-6.8203
▁hiểu	-6.83555
▁trung	-6.8371
▁cao	-6.83782
▁tốt	-6.84391
▁hội	-6.84685
▁thông	-6.8477
▁kinh	-6.85854
▁vừa	-6.86131
▁trọng	-6.871
▁thức	-6.87317
▁cứ	-6.87475
▁vô	-6.88051
▁bảo	-6.88516
▁hợp	-6.88855
▁tiếng	-6.9013
▁chẳng	-6.90144
▁đúng	-6.9023
▁đề	-6.90471
▁viên	-6.91001
▁tư	-6.92528
▁ngoài	-6.9309
▁chủ	-6.93433
▁dụng	-6.93477
▁điểm	-6.93909
▁giới	-6.94046
▁giá	-6.94486
▁kết	-6.94715
▁hãy	-6.9554
▁mắt	-6.95768
▁kỳ	-6.9729
▁tính	-6.97466
▁thương	-6.97629
▁cậu	-6.98535
▁độ	-6.98669
▁chiến	-6.99651
▁bình	-7.00512
▁dân	-7.00532
▁đời	-7.0071
▁quả	-7.01455
▁xem	-7.02317
▁quốc	-7.02347
▁thích	-7.02609
▁ngay	-7.0336
▁hoàn	-7.04267
▁bây	-7.04648
▁lấy	-7.0495
▁nam	-7.05178
▁trình	-7.05713
▁tạo	-7.05869
▁giải	-7.06379
▁lòng	-7.06408
▁tiên	-7.06918
▁phương	-7.06979
▁dù	-7.07338
▁khó	-7.07601
▁bởi	-7.07625
▁quyết	-7.07674
▁giúp	-7.07944
▁đánh	-7.07957
▁hôm	-7.08845
▁hoặc	-7.09064
▁xuất	-7.09707
▁gặp	-7.09985
▁phòng	-7.10077
▁sáng	-7.11361
▁đưa	-7.11532
▁mỗi	-7.11927
▁tập	-7.12514
▁quân	-7.12803
▁thay	-7.13372
▁xuống	-7.13853
▁đổi	-7.14592
▁liên	-7.15258
▁mạnh	-7.15898
▁lượng	-7.16181
▁bỏ	-7.16784
▁nơi	-7.17422
▁tế	-7.18273
▁từng	-7.18301
▁tiêu	-7.18791
▁tưởng	-7.19318
▁nhỏ	-7.19522
▁thêm	-7.19602
▁nghĩa	-7.19833
▁cảnh	-7.19901
▁vật	-7.19912
▁thần	-7.20086
▁vấn	-7.20123
▁cầu	-7.20742
▁tài	-7.20827
▁mất	-7.21267
▁tác	-7.21433
▁càng	-7.21511
▁sử	-7.21524
▁mấy	-7.21656
▁vụ	-7.21937
▁chắc	-7.22069
▁chứ	-7.22434
▁sản	-7.22875
▁đấy	-7.22953
▁gọi	-7.23204
▁pháp	-7.23884
▁khiến	-7.24358
▁tử	-7.24379
▁rõ	-7.24809
▁nghiệp	-7.25177
▁sức	-7.25219
▁tháng	-7.25902
▁hệ	-7.26069
▁chết	-7.26169
▁mang	-7.26696
▁đạo	-7.27786
▁mươi	-7.28147
▁cố	-7.28669
▁tên	-7.28752
▁xin	-7.29175
▁trẻ	-7.29528
▁sách	-7.30287
▁trả	-7.30483
▁nguyên	-7.31016
▁xe	-7.31152
▁thủ	-7.31572
▁biệt	-7.31946
▁phía	-7.32857
▁đất	-7.32867
▁gần	-7.3306
▁minh	-7.33086
▁an	-7.33106
▁chí	-7.33752
▁bệnh	-7.33934
▁trí	-7.33989
▁sợ	-7.34021
▁trị	-7.34218
▁cấp	-7.34496
▁thiên	-7.35097
▁kia	-7.36005
▁dùng	-7.3626
▁chân	-7.36309
▁đình	-7.36643
▁thanh	-7.36653
▁mười	-7.36839
▁bước	-7.38028
▁chú	-7.38164
▁giống	-7.3818
▁ảnh	-7.38244
▁lập	-7.38458
▁khách	-7.38523
▁đủ	-7.38547
▁vũ	-7.38954
▁cuối	-7.40318
▁tục	-7.4096
▁tức	-7.4131
▁trời	-7.41636
▁thu	-7.41691
▁sát	-7.41985
▁văn	-7.41998
▁trăm	-7.42034
▁lắm	-7.42384
▁bố	-7.43046
▁loại	-7.43621
▁đứng	-7.43785
▁nữ	-7.44188
▁giáo	-7.44471
▁hiệu	-7.44632
▁giả	-7.44655
▁báo	-7.44699
▁sĩ	-7.44953
▁nhớ	-7.45255
▁khỏi	-7.45324
▁chút	-7.45823
▁chịu	-7.45943
▁cửa	-7.45952
▁đội	-7.46089
▁đáng	-7.46094
▁biến	-7.46095
▁triển	-7.46313
▁giữa	-7.46342
▁tiến	-7.46433
▁tuy	-7.4656
▁chiếc	-7.46574
▁chất	-7.46772
▁lẽ	-7.4754
▁tăng	-7.47851
▁ít	-7.4853
▁1	-7.48593
▁vui	-7.49192
▁đơn	-7.49293
▁cười	-7.4946
▁thị	-7.49701
n	-7.49975
▁ngồi	-7.50247
▁thái	-7.50399
▁lâu	-7.5048
▁bé	-7.50777
▁dễ	-7.51288
▁khí	-7.51522
▁mua	-7.51567
▁địa	-7.51588
▁xa	-7.51608
▁đẹp	-7.51673
▁chơi	-7.51971
▁phụ	-7.52028
▁mở	-7.52061
▁gái	-7.52143
▁doanh	-7.52738
▁tương	-7.52772
▁việt	-7.52829
▁kiếm	-7.53142
▁bác	-7.53202
▁nhanh	-7.53619
▁bán	-7.53682
▁đặc	-7.53841
▁bàn	-7.5399
▁nàng	-7.54146
▁lợi	-7.54215
▁tuổi	-7.54267
▁hướng	-7.5457
▁khả	-7.54697
▁đừng	-7.54831
▁kể	-7.54921
▁vẻ	-7.55043
▁hóa	-7.55145
▁tinh	-7.55259
▁mục	-7.55405
▁suy	-7.55526
▁chọn	-7.55714
▁dẫn	-7.55895
▁quyền	-7.56434
▁đông	-7.56435
▁hoa	-7.56541
▁đồ	-7.57411
▁dưới	-7.57724
▁nội	-7.57839
▁thiết	-7.57859
▁linh	-7.58516
▁ty	-7.58851
▁chạy	-7.59092
▁dài	-7.59365
▁cực	-7.59855
▁chuyển	-7.60014
▁cha	-7.60194
▁mỹ	-7.60384
▁cổ	-7.60384
▁đàn	-7.60411
▁lão	-7.61064
▁xã	-7.61246
▁lo	-7.61271
▁quay	-7.61367
▁chức	-7.61448
▁thống	-7.61566
▁tích	-7.61606
▁đứa	-7.61615
▁máy	-7.61863
▁tượng	-7.62151
▁chỗ	-7.62235
▁thiếu	-7.62307
▁hoàng	-7.62632
▁điện	-7.62967
▁đặt	-7.63192
▁tỉnh	-7.63205
▁vợ	-7.63208
▁giao	-7.63355
▁đấu	-7.63486
▁tranh	-7.63589
▁cứu	-7.63801
▁giữ	-7.63837
▁bài	-7.63846
▁y	-7.64014
▁khoảng	-7.64481
▁phẩm	-7.64676
▁chàng	-7.65274
▁hồn	-7.65597
▁cây	-7.65745
▁kiến	-7.65822
▁chồng	-7.66036
▁chi	-7.66227
▁đôi	-7.66568
▁tối	-7.66798
▁dự	-7.66866
▁bọn	-7.6695
▁cá	-7.67074
▁ngươi	-7.671
▁phục	-7.67265
▁phong	-7.67692
▁bốn	-7.67814
▁xong	-7.68241
▁sở	-7.69755
▁giác	-7.70173
▁vài	-7.70227
▁chứng	-7.70625
▁quý	-7.70678
▁nổi	-7.7078
▁xảy	-7.70832
▁khu	-7.71136
▁tổ	-7.71178
▁nghiệm	-7.7143
▁truyền	-7.71543
▁á	-7.71651
▁đau	-7.73001
▁sang	-7.73127
▁xác	-7.7315
▁mức	-7.73474
▁liệu	-7.73923
▁ban	-7.74345
▁hồi	-7.74761
▁đạt	-7.74797
▁chế	-7.75248
▁mặc	-7.75287
▁trái	-7.75331
▁hàn	-7.75438
▁tham	-7.75643
▁diễn	-7.76009
▁hồ	-7.76077
▁vọng	-7.76214
▁sư	-7.76247
▁hoạt	-7.76617
▁yếu	-7.76769
▁nha	-7.7693
▁chung	-7.76993
▁duy	-7.77241
▁dịch	-7.77899
▁chia	-7.78251
▁mày	-7.78681
▁kế	-7.78935
▁vực	-7.78975
▁phân	-7.79234
▁lăng	-7.79461
▁ứng	-7.79582
▁cháu	-7.80467
▁2	-7.80553
▁trang	-7.80669
▁thi	-7.81004
▁kẻ	-7.81018
▁kỹ	-7.81083
▁phúc	-7.82587
▁thuộc	-7.82784
▁trưởng	-7.82822
▁đầy	-7.83527
▁màu	-7.83879
▁sai	-7.84068
▁án	-7.84454
▁phố	-7.84494
▁thư	-7.84563
▁à	-7.84594
▁đêm	-7.85121
▁hạnh	-7.85177
▁nằm	-7.85404
▁bóng	-7.85576
▁coi	-7.86447
▁trò	-7.86467
▁tiểu	-7.86533
▁nhiệm	-7.8676
▁cạnh	-7.87619
▁phá	-7.87718
▁liền	-7.87965
▁vương	-7.88188
▁hạn	-7.8839
▁xúc	-7.88931
▁quy	-7.88962
▁riêng	-7.89459
▁hạ	-7.90054
▁quen	-7.90193
▁viết	-7.90303
▁du	-7.90693
▁phản	-7.90725
▁hưởng	-7.90772
▁ngủ	-7.91503
▁thầy	-7.92186
▁diện	-7.92372
▁hơi	-7.92643
▁trai	-7.93022
▁trận	-7.93046
▁mong	-7.93114
▁vi	-7.93337
▁độc	-7.9351
▁kiểm	-7.93994
▁triệu	-7.94527
▁thằng	-7.95203
▁gây	-7.95324
▁bay	-7.9543
▁thất	-7.95599
▁sắc	-7.95665
▁quanh	-7.96089
▁áo	-7.9613
▁tuyệt	-7.96185
▁cụ	-7.96443
▁viện	-7.96744
▁tiết	-7.9715
▁đọc	-7.97514
▁thuật	-7.9755
▁đức	-7.97777
▁ánh	-7.9781
▁dựng	-7.97882
▁sâu	-7.9838
▁tổng	-7.98426
▁chương	-7.99204
▁dành	-7.99227
▁lịch	-7.99349
▁đoạn	-7.99617
▁yên	-7.9964
▁vệ	-7.99658
▁ngờ	-7.99661
▁dung	-8.00015
▁luận	-8.00241
▁chuẩn	-8.00396
▁sáu	-8.00717
▁hữu	-8.00781
▁s	-8.00784
▁khăn	-8.00982
▁thử	-8.01035
▁mạng	-8.0116
▁mối	-8.01445
▁so	-8.01526
▁chín	-8.0171
▁áp	-8.01857
▁môn	-8.01871
▁danh	-8.02091
▁chắn	-8.02631
▁thậm	-8.02827
▁xây	-8.02935
▁đoàn	-8.02987
▁thú	-8.0337
▁căn	-8.03528
▁khổ	-8.04101
▁uống	-8.04116
▁tây	-8.04196
▁kiện	-8.05123
▁khá	-8.05658
▁trạng	-8.06889
▁cuốn	-8.08142
▁trải	-8.08397
▁lỗi	-8.08924
▁hà	-8.09063
▁tra	-8.09171
▁mai	-8.0971
▁nghệ	-8.09973
▁ơi	-8.10237
▁luật	-8.10691
▁xử	-8.10712
▁lưu	-8.11098
▁gắng	-8.11315
▁quản	-8.11396
▁chấp	-8.11465
▁cung	-8.11476
▁nga	-8.11477
▁chờ	-8.11542
▁phạm	-8.11956
▁lai	-8.12175
▁dạ	-8.12195
▁dần	-8.12611
▁vàng	-8.12684
▁khai	-8.12969
▁dám	-8.12973
▁dương	-8.13108
▁buổi	-8.13316
▁kéo	-8.13332
▁nỗi	-8.13352
▁âm	-8.13379
▁nguồn	-8.13504
▁nhật	-8.13603
▁la	-8.13709
▁đem	-8.13878
▁đá	-8.14068
▁ơn	-8.1417
▁buồn	-8.14174
▁lãnh	-8.14248
▁to	-8.14409
▁đáp	-8.1446
▁thẳng	-8.14463
▁nhập	-8.14658
▁vùng	-8.14722
▁3	-8.14937
▁ạ	-8.14964
▁phép	-8.15044
▁biểu	-8.15113
▁trợ	-8.1532
▁ràng	-8.1565
▁vòng	-8.15928
▁tôn	-8.15972
▁nhờ	-8.16397
▁phủ	-8.16594
▁chuyên	-8.16716
▁phi	-8.16938
▁cộng	-8.17067
▁nhóm	-8.17365
▁món	-8.17541
▁thắng	-8.1786
▁vốn	-8.1787
▁lạ	-8.17939
▁suốt	-8.17996
▁giản	-8.18042
▁trách	-8.18318
▁luyện	-8.18444
▁hòa	-8.1849
▁bí	-8.185
▁lắng	-8.19341
▁dụ	-8.19853
▁giảm	-8.20098
▁tám	-8.2094
▁phút	-8.20962
▁đột	-8.21068
▁tội	-8.21268
▁nhiêu	-8.21273
▁sớm	-8.21386
▁tao	-8.21544
▁rộng	-8.21801
▁may	-8.21852
▁chiều	-8.22134
▁sắp	-8.22527
▁lạc	-8.22544
▁khoa	-8.22548
▁hộ	-8.22771
▁đợi	-8.22859
▁kiểu	-8.23808
▁bắc	-8.24272
▁thuyết	-8.2444
▁trực	-8.24481
▁ngoại	-8.24621
▁biển	-8.24779
▁hầu	-8.24966
▁tuần	-8.25358
▁đô	-8.25567
▁thuốc	-8.25664
▁lớp	-8.25735
▁xét	-8.2576
▁thúc	-8.25922
▁bảy	-8.2612
▁đóng	-8.26502
▁hoạch	-8.26873
▁khắc	-8.26939
▁tận	-8.26969
▁ký	-8.2704
▁hả	-8.27059
▁niềm	-8.27118
▁hề	-8.274
▁tấn	-8.27525
▁mời	-8.27537
▁cánh	-8.27712
▁châu	-8.28085
▁chào	-8.28128
▁mãi	-8.28276
▁lạnh	-8.2839
▁nghi	-8.28444
▁nghiên	-8.28541
▁hậu	-8.28763
▁lao	-8.28896
▁vận	-8.28989
▁lựa	-8.29062
▁hải	-8.29277
▁ví	-8.2953
▁lệ	-8.29797
▁di	-8.3009
▁xung	-8.30282
▁hại	-8.30793
▁kỷ	-8.31361
▁hiểm	-8.31386
▁sẻ	-8.3178
▁quên	-8.31858
▁chăm	-8.32018
▁vượt	-8.32018
▁long	-8.32055
▁kích	-8.32187
▁giết	-8.3261
▁đảm	-8.33009
▁sơn	-8.33447
▁lan	-8.33474
▁cầm	-8.33644
▁mơ	-8.3373
▁tránh	-8.34368
▁thoại	-8.34393
▁dạy	-8.34995
▁tỷ	-8.35012
▁lộ	-8.35244
▁kim	-8.35284
▁cáo	-8.35367
▁ghi	-8.35602
▁phí	-8.35688
▁nghị	-8.35811
▁ca	-8.35859
▁bánh	-8.36181
▁đỡ	-8.36459
▁nghìn	-8.36504
▁thiện	-8.36768
▁nhắc	-8.36985
▁tầm	-8.37157
▁nắm	-8.37183
▁bức	-8.37249
▁lục	-8.37441
▁đích	-8.37587
▁mô	-8.3785
▁tố	-8.38004
▁vai	-8.38152
▁nè	-8.38247
▁chữ	-8.38265
▁đám	-8.38522
▁lâm	-8.38541
▁tồn	-8.38623
▁ma	-8.38663
▁nghỉ	-8.38729
▁hy	-8.38798
▁dậy	-8.39646
▁nền	-8.39679
▁ích	-8.3989
▁nhẹ	-8.40183
▁đa	-8.40287
▁xấu	-8.40976
▁đoán	-8.41217
▁chống	-8.41763
▁nguy	-8.41763
▁hôn	-8.42047
▁a	-8.42094
▁hương	-8.42344
▁nặng	-8.42637
▁hẳn	-8.4275
▁phim	-8.42897
▁nuôi	-8.4312
▁bại	-8.43205
▁nguyễn	-8.4345
▁dàng	-8.43613
▁giận	-8.43796
▁núi	-8.43852
▁đen	-8.43873
▁tướng	-8.43881
▁trần	-8.43916
▁nửa	-8.43937
▁dòng	-8.44373
▁vân	-8.44373
▁mật	-8.44497
▁thoát	-8.44576
▁mưa	-8.45728
▁lễ	-8.45742
▁máu	-8.45944
▁mùa	-8.46158
▁khỏe	-8.46175
▁dục	-8.46191
▁ngôi	-8.46408
▁lửa	-8.46683
▁rơi	-8.46778
▁niệm	-8.47032
▁ước	-8.47215
▁cường	-8.47237
▁ngọc	-8.4803
▁đổ	-8.48032
▁đỏ	-8.48184
▁ngược	-8.48236
▁đẩy	-8.48295
▁trắng	-8.48428
▁miệng	-8.48658
▁hồng	-8.49016
▁tàu	-8.4915
▁rời	-8.4935
▁xanh	-8.4946
▁đảo	-8.49739
▁lĩnh	-8.49828
▁giọng	-8.49933
▁môi	-8.50339
▁lặng	-8.50454
▁trông	-8.51416
▁tỏ	-8.51451
▁già	-8.51497
▁ngành	-8.51505
▁thượng	-8.51959
▁binh	-8.52006
▁lương	-8.52097
▁lá	-8.52187
▁gửi	-8.52227
▁thở	-8.52227
▁trì	-8.52233
▁xưa	-8.52458
▁xuyên	-8.52604
▁giàu	-8.52736
▁bạc	-8.52961
▁niên	-8.53006
▁tim	-8.53358
▁má	-8.53375
i	-8.53533
▁thuận	-8.53636
▁thừa	-8.53752
▁nghiêm	-8.5376
▁ấn	-8.53901
▁phù	-8.53971
▁chúa	-8.54192
▁đào	-8.55171
▁nóng	-8.56043
▁đương	-8.5612
▁võ	-8.56177
▁nạn	-8.56401
▁5	-8.56964
▁tu	-8.57078
▁cũ	-8.5736
▁gió	-8.57384
▁cơm	-8.57444
▁huy	-8.57736
▁kêu	-8.57783
▁thịt	-8.58606
▁buộc	-8.58923
▁quần	-8.59069
▁ổn	-8.59217
▁phóng	-8.60144
▁lầm	-8.60155
▁khởi	-8.6018
▁dừng	-8.60438
▁chóng	-8.60555
▁tắc	-8.60622
▁dấu	-8.60789
▁thưa	-8.60825
▁ngân	-8.61082
▁mừng	-8.61141
▁ngon	-8.61236
▁thăm	-8.61571
▁giang	-8.61885
▁thấp	-8.619
▁mái	-8.62618
▁bữa	-8.62648
▁tiện	-8.62665
▁dựa	-8.62766
▁vua	-8.62811
▁toán	-8.62953
▁nhé	-8.62965
▁sân	-8.63204
▁sông	-8.63368
▁nhiệt	-8.63711
▁mê	-8.63827
▁đuổi	-8.639
▁giấy	-8.64082
▁giai	-8.6442
▁nông	-8.64477
▁kính	-8.64527
▁ngài	-8.65022
▁quán	-8.65335
▁thảo	-8.65384
▁vội	-8.65634
▁soát	-8.66153
▁dữ	-8.66251
▁rừng	-8.66348
▁mắc	-8.66569
▁dạng	-8.66711
▁quang	-8.66826
▁băng	-8.66979
▁phó	-8.66983
▁tầng	-8.67089
▁khóc	-8.67313
▁đệ	-8.67453
▁video	-8.67541
▁ngừng	-8.67648
▁đế	-8.67909
▁tĩnh	-8.68404
▁giám	-8.68427
m	-8.68513
▁đón	-8.68553
▁tấm	-8.68603
▁tai	-8.68725
▁ly	-8.68822
▁rút	-8.68921
▁cải	-8.68992
▁xếp	-8.69049
▁sơ	-8.69529
▁kịp	-8.69841
▁làng	-8.69893
▁phận	-8.69988
▁thủy	-8.69997
▁ngăn	-8.70199
▁phiếu	-8.70246
▁hùng	-8.70393
▁cắt	-8.7066
▁nghề	-8.70873
▁huống	-8.71067
▁tộc	-8.71411
▁nhu	-8.71811
▁kiên	-8.7259
▁thơ	-8.72705
▁hỗ	-8.72981
▁sàng	-8.73218
▁ẩn	-8.73357
▁hút	-8.73414
▁rượu	-8.73452
▁ngạc	-8.73721
▁nhạc	-8.73747
▁4	-8.73807
▁thù	-8.73971
▁chặt	-8.74042
▁khám	-8.74353
▁da	-8.75037
▁cân	-8.75293
▁gồm	-8.7539
▁dường	-8.7569
▁chừng	-8.75817
▁huyện	-8.75875
▁chữa	-8.75981
▁khoản	-8.7614
▁quảng	-8.76205
▁giỏi	-8.76335
▁ngàn	-8.77154
▁phật	-8.77188
▁ô	-8.77529
▁ha	-8.7756
▁hẹn	-8.77831
▁bối	-8.78095
▁nhằm	-8.78218
▁xuân	-8.78488
▁lệnh	-8.78511
ng	-8.78775
▁ngắn	-8.79119
▁nâng	-8.79139
▁lưng	-8.79594
▁hào	-8.79651
▁âu	-8.80131
▁mẫu	-8.80455
▁địch	-8.80527
▁ngữ	-8.80833
▁trao	-8.81132
▁lành	-8.81295
▁cận	-8.81346
▁cử	-8.81532
▁cơn	-8.81631
▁dưỡng	-8.81861
▁tô	-8.82331
▁biên	-8.82348
▁mệt	-8.824
▁nhảy	-8.82421
▁bạch	-8.82899
▁lẫn	-8.829
▁khắp	-8.83098
▁kém	-8.83308
▁tạm	-8.83386
▁hãi	-8.83402
▁ngại	-8.83476
▁bè	-8.83866
▁nghèo	-8.83971
▁mẽ	-8.84065
▁bỗng	-8.84171
▁gã	-8.8425
▁tả	-8.84331
▁trụ	-8.84462
▁hấp	-8.84712
▁ác	-8.84746
▁song	-8.84973
▁sóc	-8.85021
▁góp	-8.8532
▁hát	-8.85589
▁nhi	-8.85842
▁cam	-8.85918
▁liệt	-8.85974
▁đăng	-8.86428
▁cập	-8.86633
▁lối	-8.86721
▁hạo	-8.87156
▁tuyên	-8.87352
▁đòi	-8.87407
▁ủy	-8.87463
▁ưu	-8.87551
▁đài	-8.87671
▁quê	-8.87729
▁phê	-8.87802
▁tệ	-8.87937
▁nấu	-8.88041
▁hạt	-8.88143
▁tốc	-8.88206
▁hổ	-8.88282
▁trừ	-8.88448
▁cà	-8.88568
▁bắn	-8.88648
▁nguyện	-8.88803
▁tớ	-8.88885
▁bật	-8.89047
▁ngang	-8.89168
▁nối	-8.8938
▁10	-8.89396
▁khủng	-8.89458
▁dây	-8.89659
▁ngôn	-8.89694
▁tóc	-8.90354
▁đảng	-8.90649
▁nỗ	-8.90661
▁quái	-8.90742
▁hài	-8.90782
▁cư	-8.9082
▁ôm	-8.90966
▁chiếm	-8.91054
▁thánh	-8.91532
▁đốc	-8.91612
▁bày	-8.91717
▁ngã	-8.91899
▁bầu	-8.92113
▁thiệu	-8.92125
▁tuyển	-8.92412
▁thận	-8.92584
▁dõi	-8.92791
▁miền	-8.92941
▁mã	-8.93083
▁loạn	-8.93406
▁loài	-8.93508
▁chậm	-8.93729
▁thói	-8.93741
▁mũi	-8.93769
▁im	-8.93944
▁phú	-8.9399
▁tín	-8.94004
▁khẩu	-8.94219
▁tông	-8.95059
▁thưởng	-8.95076
▁tổn	-8.95363
▁siêu	-8.95478
▁trốn	-8.95552
▁dầu	-8.95703
▁dĩ	-8.96297
▁ngũ	-8.96326
▁tường	-8.96597
▁rối	-8.96669
▁não	-8.96826
a	-8.97231
▁dị	-8.97737
▁lê	-8.98065
▁thiệt	-8.98252
▁hứng	-8.98617
▁phổ	-8.98805
▁khuyên	-8.98886
▁sạch	-8.99353
▁tha	-8.99562
▁vâng	-8.9958
▁sửa	-8.9964
▁bụng	-8.99711
▁tịch	-8.99736
▁cục	-8.99778
▁vời	-8.99789
▁quỷ	-9.00007
▁nổ	-9.00174
▁tuyến	-9.0093
▁tạp	-9.01093
▁góc	-9.0138
▁vết	-9.01858
▁ấm	-9.01871
▁tàn	-9.02024
▁thách	-9.02077
▁tặng	-9.02605
▁hiệp	-9.02873
▁bổ	-9.03032
▁vạn	-9.03253
▁căng	-9.03399
▁vững	-9.03551
▁mắn	-9.03708
▁ngựa	-9.03748
0	-9.03849
▁mệnh	-9.03859
▁trương	-9.03898
▁tờ	-9.04053
▁huynh	-9.04185
▁hứa	-9.04531
▁tiềm	-9.04622
▁tan	-9.04634
▁thua	-9.047
▁lược	-9.04765
▁tụi	-9.04881
▁ninh	-9.05026
▁bờ	-9.05276
▁gà	-9.05381
▁lính	-9.05443
▁tết	-9.05764
▁thuyền	-9.05796
▁thoải	-9.05797
▁chỉnh	-9.06135
▁tươi	-9.06244
▁cẩn	-9.06508
▁gốc	-9.06653
▁đèn	-9.06786
▁gắn	-9.06869
▁bậc	-9.06958
▁chạm	-9.07131
▁lỗ	-9.07365
▁giấc	-9.07585
▁sóng	-9.07759
▁phán	-9.07946
▁đỉnh	-9.07986
▁tam	-9.08071
▁gấp	-9.08255
▁nắng	-9.08363
▁chuyến	-9.08444
▁mùi	-9.08752
▁tiếc	-9.08984
▁chấm	-9.09637
▁sổ	-9.09856
▁tái	-9.09867
▁bận	-9.10239
▁lái	-9.10742
▁cháy	-9.10914
▁giật	-9.11052
▁cưới	-9.11066
▁tù	-9.11138
▁phối	-9.11163
▁tùy	-9.1135
▁thầm	-9.11704
▁trấn	-9.12966
▁chối	-9.13036
▁đan	-9.13091
▁quà	-9.13185
▁che	-9.13681
▁thỏa	-9.13705
▁ngọn	-9.13723
▁giây	-9.13759
▁khối	-9.13802
▁chảy	-9.13977
▁chúc	-9.14038
▁cờ	-9.14072
▁súng	-9.14286
▁vỡ	-9.143
▁lôi	-9.14553
▁chiếu	-9.14645
▁nợ	-9.14847
▁biện	-9.15032
▁trầm	-9.15061
▁gương	-9.15263
▁diệt	-9.15277
▁tung	-9.1529
▁sung	-9.15428
▁nãy	-9.15509
▁khuôn	-9.15687
▁khán	-9.15961
▁chu	-9.16237
▁thuê	-9.16529
▁mộ	-9.16584
▁khẳng	-9.16599
▁dũng	-9.16614
▁xu	-9.16779
▁tuấn	-9.16833
▁mãn	-9.16959
▁can	-9.16988
▁giường	-9.17098
▁dứt	-9.17142
▁trồng	-9.17157
▁chó	-9.17364
▁huyết	-9.17658
▁sa	-9.17727
▁khóa	-9.17832
▁màn	-9.1802
▁túi	-9.18087
▁điên	-9.18217
▁phức	-9.18429
▁trà	-9.19049
▁uy	-9.19137
▁khứ	-9.1948
▁suất	-9.19598
▁tán	-9.19662
▁bào	-9.19717
▁vang	-9.19927
▁nét	-9.20024
g	-9.20084
▁thang	-9.20546
▁tân	-9.2077
▁000	-9.2095
▁tuyết	-9.21072
▁đập	-9.21086
▁game	-9.21246
▁hận	-9.21484
▁tòa	-9.21664
▁ám	-9.21759
▁lát	-9.21795
▁thập	-9.21807
▁ủng	-9.2181
▁chứa	-9.22442
▁nhẫn	-9.23001
▁thao	-9.23152
▁thí	-9.23254
▁tảng	-9.23291
▁canh	-9.23373
▁khô	-9.2361
▁huyền	-9.23611
▁đựng	-9.23642
▁phạt	-9.23642
▁khổng	-9.23833
▁ép	-9.23894
▁chợ	-9.23905
▁miễn	-9.23972
▁phiền	-9.24241
▁vẽ	-9.24272
▁thụ	-9.24321
▁phu	-9.24369
▁lượt	-9.24446
▁bò	-9.24502
▁cát	-9.25156
▁đằng	-9.25272
▁bi	-9.25461
▁bếp	-9.25626
▁chán	-9.25659
▁họp	-9.25726
▁cốt	-9.25769
▁ghế	-9.25832
▁dáng	-9.26284
▁hư	-9.2633
▁lăm	-9.26411
▁bột	-9.26691
▁chim	-9.26803
▁thiền	-9.2688
▁tràn	-9.26987
▁hoài	-9.27012
▁sài	-9.27059
▁cất	-9.27075
▁hảo	-9.27098
▁lang	-9.27099
▁thơm	-9.27184
▁miếng	-9.27205
▁triều	-9.27318
▁cặp	-9.27546
▁cản	-9.27904
▁thạch	-9.28087
▁trôi	-9.28152
▁chăng	-9.28255
▁tròn	-9.28369
▁mềm	-9.28481
▁dịp	-9.2849
▁đà	-9.28503
▁phiên	-9.28514
▁tắt	-9.28613
▁cứng	-9.28616
▁chục	-9.28959
▁giấu	-9.29009
▁kịch	-9.29076
▁hoang	-9.29463
▁hộp	-9.29545
▁răng	-9.30159
▁mạch	-9.30451
▁tri	-9.30453
▁bạo	-9.30461
t	-9.30465
▁lừa	-9.30831
▁tuệ	-9.30853
▁mỏi	-9.30888
▁mảnh	-9.30966
▁phái	-9.31031
▁thả	-9.3123
▁cán	-9.3132
▁hoảng	-9.31321
▁nương	-9.31388
▁nhuận	-9.31524
▁chiêu	-9.31729
▁ngọt	-9.32053
▁họa	-9.32088
▁huấn	-9.32274
▁thổ	-9.32313
▁ghét	-9.32398
▁phẩy	-9.32428
▁dọn	-9.32556
▁sánh	-9.32909
▁xứng	-9.33834
o	-9.33961
▁trống	-9.34154
▁thờ	-9.34189
▁cãi	-9.34191
▁vĩ	-9.34381
▁dối	-9.34523
▁đạn	-9.34596
▁lắc	-9.34611
▁gật	-9.34733
▁thai	-9.34904
▁xương	-9.35384
▁nụ	-9.35529
▁hoắc	-9.35968
▁ừ	-9.36089
▁vườn	-9.36165
s	-9.36431
▁khích	-9.36588
▁hạng	-9.36612
▁pha	-9.36913
▁phấn	-9.37039
▁trùng	-9.37113
▁tốn	-9.37473
▁hiền	-9.37597
▁ái	-9.38297
▁ngô	-9.3876
▁nhàng	-9.3901
▁khát	-9.39122
▁muộn	-9.39509
▁cướp	-9.39546
▁xinh	-9.3958
▁ờ	-9.40073
▁ngón	-9.40112
▁ruột	-9.40174
▁trại	-9.40211
▁giành	-9.40532
▁đói	-9.40618
▁tải	-9.41101
▁duyên	-9.41105
▁vinh	-9.41151
▁bang	-9.41175
▁xoay	-9.41256
▁thảm	-9.41328
▁lùng	-9.4133
▁đậu	-9.41366
▁tứ	-9.41434
▁mây	-9.41478
▁hủy	-9.41855
▁cỏ	-9.41872
▁nhỉ	-9.42002
▁vĩnh	-9.4212
▁nhắm	-9.42156
▁dư	-9.42486
▁chả	-9.42553
▁thôn	-9.42735
▁hỏa	-9.42762
▁tựa	-9.42925
▁bớt	-9.42952
▁mộng	-9.43143
▁khen	-9.43197
▁hung	-9.43226
▁đành	-9.43322
▁trúc	-9.43663
▁say	-9.43693
▁mát	-9.43727
▁nhấn	-9.43735
▁túc	-9.43953
u	-9.44475
▁khảo	-9.4468
▁lãng	-9.4472
▁khái	-9.45439
▁ro	-9.45633
▁kênh	-9.45851
▁kho	-9.46496
▁mến	-9.46517
▁nọ	-9.46758
▁điệp	-9.4688
▁dược	-9.47309
▁mại	-9.47471
▁tú	-9.47527
▁nhắn	-9.47768
▁ảo	-9.47792
▁hối	-9.47954
▁triết	-9.48008
▁loạt	-9.48028
▁mông	-9.48057
▁hiếm	-9.48068
▁thấu	-9.48288
▁buông	-9.48457
▁mau	-9.48468
▁tí	-9.48587
▁nở	-9.4861
▁trưa	-9.48893
▁lui	-9.48918
▁quyển	-9.48995
▁cấu	-9.49196
▁kháng	-9.49273
▁u	-9.49314
▁bá	-9.49336
▁in	-9.49433
▁tụ	-9.4963
▁đùa	-9.49806
▁diệu	-9.49867
▁20	-9.49893
▁thuần	-9.49908
▁rửa	-9.50235
▁rau	-9.50642
▁thác	-9.507
▁sướng	-9.51037
▁b	-9.51103
▁ngoan	-9.51168
▁dày	-9.51326
▁chặn	-9.51668
▁ân	-9.51999
▁hưng	-9.52135
▁chưởng	-9.5224
▁cấm	-9.52303
▁lũ	-9.52345
▁sót	-9.52387
▁ức	-9.52513
▁ngập	-9.5268
▁đớn	-9.52722
▁gòn	-9.52771
▁rủi	-9.53151
▁lồ	-9.53298
▁tắm	-9.53396
▁trào	-9.53408
▁sứ	-9.53453
▁e	-9.5374
▁bấy	-9.53777
▁giảng	-9.53854
▁ukraine	-9.54011
▁gỗ	-9.54287
▁kiệm	-9.54415
▁săn	-9.5486
▁cổng	-9.55078
▁cương	-9.55424
▁lỡ	-9.55791
▁sữa	-9.5616
▁mờ	-9.56271
h	-9.56348
▁pháo	-9.56361
▁ngực	-9.56403
▁đao	-9.56614
y	-9.56766
▁tách	-9.56846
▁kê	-9.56895
▁ngộ	-9.56951
▁xóm	-9.57187
▁bát	-9.57305
▁đốt	-9.57387
▁chụp	-9.57472
▁mưu	-9.57736
▁thẩm	-9.57957
▁khôn	-9.58009
▁thoảng	-9.58069
▁ung	-9.58231
▁mạo	-9.5829
▁bông	-9.58693
▁khánh	-9.5871
▁truy	-9.5877
▁gỡ	-9.59002
▁tháp	-9.59159
▁chở	-9.59254
▁dao	-9.5941
p	-9.59581
▁thăng	-9.59652
▁tật	-9.59697
▁thuế	-9.59758
▁nguyệt	-9.59765
▁ngơi	-9.59773
▁chấn	-9.599
▁sốt	-9.60266
▁mù	-9.60362
▁mò	-9.60421
▁tỏa	-9.60483
▁tần	-9.605
▁điển	-9.60549
▁dâu	-9.60601
▁gói	-9.60783
▁ngu	-9.61029
▁vả	-9.61061
▁quỹ	-9.61171
▁tá	-9.61347
▁nhá	-9.61619
▁hầm	-9.61652
▁đợt	-9.61698
▁kèm	-9.61814
▁táo	-9.61868
▁bảng	-9.62127
▁mực	-9.62643
▁kín	-9.63014
▁trưng	-9.63155
▁đâm	-9.63295
▁thèm	-9.63341
▁ukraina	-9.63481
▁phỏng	-9.63481
c	-9.63504
▁dịu	-9.63683
▁lam	-9.63743
▁trăng	-9.63904
▁khiển	-9.64084
▁trứng	-9.64091
▁cửu	-9.64344
▁trân	-9.6435
▁bãi	-9.64381
▁dính	-9.64397
▁nhạt	-9.64444
▁leo	-9.64627
▁viễn	-9.64705
▁hiếu	-9.64894
▁khúc	-9.64941
▁đồn	-9.64967
▁bó	-9.65066
▁trúng	-9.65762
▁khiếp	-9.66462
▁hàm	-9.66479
▁đáo	-9.66607
▁giáp	-9.6662
▁hè	-9.66756
▁bề	-9.66874
▁khoảnh	-9.67092
▁hiến	-9.67147
▁nhị	-9.67247
▁hằng	-9.67366
▁lông	-9.67548
▁kiếp	-9.67609
▁nhiễm	-9.67779
▁đền	-9.67792
▁cốc	-9.67801
▁chợt	-9.67867
▁mì	-9.68049
▁run	-9.6807
▁hán	-9.68103
▁thỉnh	-9.68121
▁gánh	-9.68122
▁kiệt	-9.68318
▁bách	-9.68602
▁khung	-9.68721
▁đam	-9.68895
▁gợi	-9.69031
▁gọn	-9.69195
▁thước	-9.69229
▁điệu	-9.69359
▁n	-9.69406
▁30	-9.69622
▁chùa	-9.69676
▁quát	-9.70034
▁mỉm	-9.70129
▁cuồng	-9.70175
▁ném	-9.70284
▁sương	-9.704
▁mèo	-9.70401
▁muối	-9.70851
▁hiển	-9.71028
▁vay	-9.71084
▁k	-9.71137
▁chìm	-9.71409
▁ống	-9.71457
▁tống	-9.71478
▁cú	-9.71531
▁dọc	-9.71559
▁đeo	-9.7192
▁khẽ	-9.72296
▁huệ	-9.72398
▁sôi	-9.72556
▁óc	-9.72766
▁buôn	-9.72823
▁thợ	-9.72885
▁đua	-9.73171
▁gạo	-9.73194
▁khuyến	-9.73219
▁non	-9.73576
▁ôi	-9.73663
▁nát	-9.7384
▁mi	-9.73895
▁mạc	-9.74011
▁bám	-9.74016
▁thoáng	-9.74021
▁mét	-9.74053
▁đắc	-9.74125
▁tóm	-9.74177
▁rác	-9.74248
▁vắng	-9.7436
▁ngắm	-9.74829
▁rào	-9.74857
▁15	-9.74909
▁ga	-9.74918
▁vong	-9.74938
▁đạp	-9.74987
▁cột	-9.75171
▁huế	-9.75224
▁bụi	-9.7525
▁xâm	-9.75407
▁lẻ	-9.76118
▁nướng	-9.76253
▁lùi	-9.76283
▁sợi	-9.76341
▁c	-9.76407
▁xíu	-9.76736
▁trộm	-9.76839
▁dắt	-9.76973
▁12	-9.77166
▁đo	-9.77442
▁bội	-9.78098
▁tủ	-9.78303
▁móc	-9.78347
▁co	-9.78552
▁dạo	-9.78637
▁lộn	-9.78948
▁đinh	-9.79335
▁vẹn	-9.7941
▁sắt	-9.7941
▁nhã	-9.80137
▁than	-9.80343
▁phượng	-9.80374
▁rắn	-9.80817
▁man	-9.8083
▁đẳng	-9.81012
▁sạn	-9.8106
▁rốt	-9.81096
▁liều	-9.8118
▁dọa	-9.81431
▁rẻ	-9.81543
▁ngưỡng	-9.81571
▁tồi	-9.81571
▁ok	-9.81766
▁nhược	-9.81851
▁thâm	-9.81936
▁trích	-9.82244
▁hắc	-9.82358
▁khôi	-9.82365
▁tiệc	-9.82528
▁thọ	-9.8275
▁treo	-9.82759
▁rãi	-9.82845
▁sàn	-9.82853
▁mượn	-9.82924
▁bực	-9.82983
▁bền	-9.83153
▁ư	-9.83294
▁đống	-9.83303
▁chốt	-9.83694
▁bút	-9.84154
▁khéo	-9.84239
▁100	-9.84442
▁đàm	-9.84643
▁đẻ	-9.84729
▁tuân	-9.85019
▁trừng	-9.85029
▁lặp	-9.85076
▁mốt	-9.85076
▁vây	-9.85077
▁trọn	-9.85481
▁bồ	-9.85539
▁nảy	-9.85629
▁lưới	-9.85629
▁hỗn	-9.85794
▁xô	-9.85891
▁thúy	-9.85906
▁bồi	-9.86029
▁nhở	-9.86038
▁đắn	-9.86057
▁lãi	-9.86718
▁nề	-9.86901
▁chép	-9.8695
▁dò	-9.87047
▁đỗ	-9.87079
▁thổi	-9.87221
▁ương	-9.87278
▁gan	-9.87283
▁rắc	-9.87335
▁vất	-9.87425
▁lưỡi	-9.87573
▁the	-9.87691
▁nhầm	-9.87781
▁ghê	-9.87841
▁cỡ	-9.87881
▁xích	-9.8856
▁hôi	-9.88608
▁hỏng	-9.888
▁khoán	-9.8901
▁bèn	-9.89193
▁dặn	-9.89212
▁mồ	-9.89236
▁lọc	-9.89709
▁lô	-9.89983
▁thuẫn	-9.90073
▁chén	-9.90255
▁vỏ	-9.90409
▁vỗ	-9.90807
▁tháo	-9.91361
▁khẩn	-9.91671
▁na	-9.91732
▁cắn	-9.92323
▁đòn	-9.92547
▁khao	-9.92577
▁thải	-9.9264
▁nghịch	-9.92835
▁trịnh	-9.93104
▁chém	-9.93106
▁quận	-9.93421
▁trộn	-9.93515
▁mâu	-9.93579
▁tò	-9.9368
▁bù	-9.93934
▁truyện	-9.94149
▁rung	-9.94264
▁lướt	-9.94339
▁dồn	-9.94539
▁thịnh	-9.94556
▁thiểu	-9.94564
▁bão	-9.94599
▁hô	-9.94872
▁tùng	-9.95045
▁trú	-9.95075
▁xứ	-9.95091
▁nhịp	-9.95243
▁luân	-9.95492
▁thiệp	-9.95977
▁ham	-9.96375
▁hãng	-9.96403
▁nhục	-9.96495
▁nêu	-9.96496
e	-9.96738
▁rỡ	-9.9682
▁đậm	-9.96885
▁cai	-9.96892
▁nhãn	-9.97333
▁tiêm	-9.97475
▁cậy	-9.97672
▁mộc	-9.97687
▁củ	-9.98086
▁sụp	-9.98299
▁hét	-9.98303
▁rực	-9.98564
▁khinh	-9.99143
▁khoai	-9.99279
▁ph	-9.99327
▁béo	-9.99368
▁đoạt	-9.99398
▁sếp	-9.99399
▁ngư	-9.99491
▁dẹp	-9.99532
▁quét	-9.99767
▁lúa	-9.99767
▁lò	-9.99971
▁ẩm	-10.0027
▁ớt	-10.0027
▁lăn	-10.003
▁nháy	-10.0035
▁ngục	-10.0048
▁bùng	-10.008
▁ngợi	-10.0085
▁tia	-10.0095
▁chua	-10.0098
▁chăn	-10.0101
▁chai	-10.0149
▁bọc	-10.015
▁cúi	-10.0152
▁điền	-10.0162
▁ngầm	-10.017
▁thùng	-10.0186
▁dinh	-10.0216
▁giam	-10.0222
▁ủa	-10.0239
▁tôm	-10.0242
▁chớp	-10.0243
▁loan	-10.0245
5	-10.0261
▁kiều	-10.028
▁tiệm	-10.0284
▁hi	-10.0287
▁chuột	-10.0301
▁khói	-10.0321
▁nồi	-10.0332
▁ngốc	-10.0336
▁bom	-10.0351
▁trinh	-10.0354
▁bến	-10.0362
▁ôn	-10.0367
▁cởi	-10.0413
▁gác	-10.0413
▁lấp	-10.0427
▁xóa	-10.0438
▁đụng	-10.0458
▁ngự	-10.0464
▁ngột	-10.0478
▁bê	-10.0495
▁50	-10.0511
▁nho	-10.0525
▁bốc	-10.0542
▁lộc	-10.0561
▁yến	-10.0561
▁gạt	-10.0565
▁hẹp	-10.0575
▁khuyết	-10.06
▁nhặt	-10.0626
▁tà	-10.0627
▁đuôi	-10.0629
▁bơi	-10.063
▁đáy	-10.063
▁khoan	-10.0648
▁đắt	-10.0651
▁chuỗi	-10.0672
▁ngâm	-10.0716
▁chủng	-10.0718
▁kìa	-10.0724
▁túng	-10.0726
▁thẻ	-10.0737
▁mẻ	-10.0741
▁nhịn	-10.0743
▁va	-10.0749
▁hòn	-10.0763
▁hang	-10.0787
▁suối	-10.0803
▁ồ	-10.0846
▁tạ	-10.0849
▁manh	-10.085
▁giọt	-10.0865
▁hái	-10.0888
▁nô	-10.0899
▁mọc	-10.0917
▁bấm	-10.0928
▁cay	-10.0943
▁lật	-10.0961
▁phẫu	-10.0972
▁giày	-10.0983
▁đe	-10.0996
▁vã	-10.1007
▁11	-10.1021
▁sờ	-10.1034
▁ốm	-10.1035
▁v	-10.1041
▁muội	-10.105
▁khốn	-10.1057
▁rộn	-10.1092
▁thản	-10.1102
2	-10.111
▁trật	-10.1114
▁phường	-10.1114
▁vé	-10.1137
▁chê	-10.1145
▁rèn	-10.1175
▁lạp	-10.1179
▁lệch	-10.1187
▁ghé	-10.1198
▁thắc	-10.1231
▁m	-10.1253
▁tiễn	-10.1293
▁mắng	-10.1296
▁khía	-10.1337
▁ả	-10.1345
▁luồng	-10.1358
▁đứt	-10.1362
▁chuông	-10.137
▁vải	-10.1373
▁nhạy	-10.1412
▁dập	-10.1439
▁bẩm	-10.1466
▁tỉ	-10.1475
▁muỗng	-10.1525
▁phước	-10.1568
▁hít	-10.1588
▁nhường	-10.16
▁ngạo	-10.16
▁hoại	-10.1608
▁san	-10.1613
▁đồi	-10.1654
▁chốc	-10.1675
▁bia	-10.1688
▁dở	-10.1699
▁cạn	-10.1707
▁cưỡng	-10.1707
▁thấm	-10.1731
▁liễu	-10.1751
▁côn	-10.1752
▁khuất	-10.1784
▁cớ	-10.1801
▁trữ	-10.1804
▁nút	-10.1808
▁ưa	-10.1809
▁kệ	-10.181
▁no	-10.1816
▁khống	-10.1821
▁ti	-10.1822
▁khoái	-10.1828
▁chánh	-10.1843
▁ruộng	-10.186
▁dốc	-10.1897
▁gối	-10.1901
▁tàng	-10.193
▁ri	-10.1934
▁tề	-10.1954
▁cự	-10.1959
▁tráng	-10.2008
▁quỳnh	-10.2012
▁mỏng	-10.2013
▁phan	-10.2035
▁su	-10.2059
▁ủi	-10.2068
▁xông	-10.2105
▁chửi	-10.2111
▁dỗ	-10.2121
▁thám	-10.2127
▁dội	-10.2161
▁cắm	-10.2211
▁mụ	-10.2236
▁chằm	-10.224
▁mùng	-10.2252
▁cựu	-10.2258
▁giặc	-10.2278
▁dại	-10.2282
▁lưỡng	-10.23
▁tê	-10.2322
▁đắp	-10.2338
▁túy	-10.2348
▁bắp	-10.2355
▁sắm	-10.2368
▁hở	-10.2379
▁ngây	-10.2398
▁gõ	-10.2441
▁ốc	-10.2462
▁ngưng	-10.2464
▁lau	-10.249
▁cống	-10.2513
▁dẫu	-10.2514
▁thốt	-10.2518
▁rồng	-10.2527
▁israel	-10.2535
▁2023	-10.2544
▁mũ	-10.2547
▁hò	-10.2549
▁né	-10.2553
▁khang	-10.2554
1	-10.2556
▁giãn	-10.2574
▁phe	-10.2582
▁nghiêng	-10.2586
▁dâng	-10.2601
▁heo	-10.2602
▁vươn	-10.2604
▁ho	-10.2623
▁xưng	-10.2636
▁quãng	-10.2667
▁nén	-10.2677
▁tím	-10.2679
▁làn	-10.2697
▁vung	-10.2699
k	-10.2714
▁trượng	-10.2737
▁oanh	-10.2746
▁oán	-10.275
▁xá	-10.2758
▁2024	-10.2764
▁ngó	-10.2807
▁mãnh	-10.2811
▁chinh	-10.2825
er	-10.2831
▁bế	-10.2832
▁châm	-10.2839
▁khiêm	-10.2855
▁cõi	-10.2862
▁thính	-10.2863
▁bích	-10.2873
▁khe	-10.2883
▁lồng	-10.2901
▁đuối	-10.2911
▁ấp	-10.2924
▁nuốt	-10.2956
▁sanh	-10.2964
▁ao	-10.2968
▁200	-10.2973
▁dặm	-10.2993
▁lắp	-10.3002
▁chiên	-10.3029
▁chui	-10.3061
▁t	-10.3068
▁dừa	-10.307
▁vọt	-10.3084
00	-10.3089
▁dì	-10.314
▁khép	-10.3158
▁kẹt	-10.3162
▁khấu	-10.3167
▁hoan	-10.3167
▁vách	-10.3177
▁trạm	-10.3181
▁lợn	-10.3186
▁ướt	-10.3228
▁út	-10.3246
▁mỏ	-10.325
▁lờ	-10.3253
▁xé	-10.326
▁lánh	-10.3275
▁lũy	-10.3294
▁kem	-10.3313
▁đàng	-10.3322
▁ơ	-10.3327
▁nghiện	-10.333
▁ngẩn	-10.3348
▁cỗ	-10.3366
▁chọc	-10.3382
▁khơi	-10.3401
▁khuya	-10.3401
▁tát	-10.3403
▁ào	-10.3416
▁lơ	-10.3426
▁đãi	-10.3459
▁kiêu	-10.3462
▁bẩy	-10.3501
▁nồng	-10.3501
▁mổ	-10.3505
▁cắp	-10.352
▁đặng	-10.352
▁lung	-10.3554
▁lọt	-10.3578
▁đoan	-10.3602
▁bừng	-10.3611
▁trọ	-10.3614
▁men	-10.3677
▁lữ	-10.3677
▁quỳ	-10.3679
▁gũi	-10.3679
▁hiếp	-10.3689
▁rủ	-10.369
▁xôi	-10.3692
▁dã	-10.3698
▁mạn	-10.3708
▁kì	-10.3729
▁14	-10.3762
▁tựu	-10.3773
▁cúng	-10.378
▁ni	-10.378
▁si	-10.3794
▁ngoái	-10.3796
▁chư	-10.3803
▁phụng	-10.3833
▁sầu	-10.3836
▁viêm	-10.3856
▁bóp	-10.3857
▁đếm	-10.3865
▁đầm	-10.3875
▁ngẫu	-10.39
▁tước	-10.391
▁nhánh	-10.3921
▁củng	-10.3922
▁xạ	-10.3928
▁thô	-10.3931
▁hưu	-10.3943
▁dưng	-10.3944
▁vứt	-10.3945
▁gián	-10.3946
▁rét	-10.3965
▁bẫy	-10.3975
▁chớ	-10.3981
▁ghen	-10.3983
▁trâu	-10.399
▁lầu	-10.399
▁sen	-10.401
▁múa	-10.402
▁hăng	-10.4025
▁nộp	-10.4041
▁xế	-10.4058
▁chẽ	-10.4066
▁liếc	-10.4091
▁lường	-10.4096
▁soạn	-10.41
▁g	-10.4105
▁đấm	-10.4106
▁vặt	-10.4116
▁gạch	-10.4117
▁0	-10.4117
▁phun	-10.4126
▁đĩa	-10.4137
▁mồi	-10.414
3	-10.4148
d	-10.415
▁ngơ	-10.415
▁kẹo	-10.4152
▁thà	-10.4177
▁cành	-10.421
▁trễ	-10.4214
▁xuôi	-10.4234
▁nghiệt	-10.4239
r	-10.4252
▁đai	-10.427
▁dãy	-10.4286
▁miên	-10.4317
▁xoa	-10.4323
▁rẽ	-10.4327
▁duyệt	-10.4332
▁bể	-10.4339
▁lén	-10.4365
▁đúc	-10.4384
▁tạng	-10.4392
▁êm	-10.4408
▁nấm	-10.441
▁hệt	-10.4411
▁mồm	-10.4413
▁trục	-10.4429
▁vờ	-10.444
▁ngào	-10.4453
▁giơ	-10.4484
4	-10.4491
▁bổn	-10.4495
▁triệt	-10.4526
▁13	-10.4535
▁rũ	-10.4536
▁trượt	-10.4542
▁thề	-10.455
▁đắm	-10.459
▁đ	-10.4591
▁25	-10.4591
▁h	-10.4593
▁màng	-10.4601
ohn	-10.4601
▁đè	-10.4621
▁mắm	-10.4649
▁nấy	-10.4713
▁nắp	-10.4719
▁hân	-10.4719
▁gãy	-10.4733
▁hiên	-10.4751
▁chuối	-10.4767
▁nữu	-10.4767
▁diễm	-10.4773
▁lào	-10.4781
▁rảnh	-10.4784
▁cẩm	-10.4838
▁lân	-10.4848
▁muôn	-10.4854
▁nạp	-10.4855
▁hâm	-10.4866
▁xài	-10.4867
▁tre	-10.4874
▁hốt	-10.4877
▁ngẫm	-10.4893
▁móng	-10.4898
▁lỏng	-10.4899
▁nốt	-10.4921
▁bẩn	-10.4926
▁bộc	-10.4927
▁x	-10.4951
▁trùm	-10.4954
▁li	-10.4964
▁ki	-10.4965
▁40	-10.4968
▁mòn	-10.4972
▁nhan	-10.4975
▁xả	-10.498
▁kiềm	-10.4992
▁nộ	-10.4997
▁cuộn	-10.5065
▁ồn	-10.5068
▁ghép	-10.5077
▁hao	-10.5084
▁mập	-10.5098
▁thép	-10.5115
▁diệp	-10.5127
▁thiếp	-10.5166
▁nếp	-10.5172
▁chìa	-10.5178
▁lây	-10.5183
▁24	-10.5204
▁lõi	-10.5206
▁khỉ	-10.5211
▁hoá	-10.5219
▁gai	-10.5244
▁xăng	-10.5274
▁bén	-10.5286
▁đắng	-10.531
▁new	-10.5311
▁thắt	-10.5314
▁nản	-10.5315
▁bái	-10.5331
▁thoái	-10.5337
▁tơ	-10.5341
▁mặn	-10.536
▁miêu	-10.5365
▁khoác	-10.5394
▁nhọc	-10.5412
▁nhàn	-10.5419
▁bã	-10.5432
▁gen	-10.5443
▁mỡ	-10.5458
▁gục	-10.5458
▁trơn	-10.5463
▁ầm	-10.5465
l	-10.5467
▁gấu	-10.5475
▁hèn	-10.5489
▁nhát	-10.5524
▁bùi	-10.5526
▁vạch	-10.5528
▁xà	-10.5547
▁đạc	-10.5547
▁gào	-10.5549
▁rưỡi	-10.5563
▁rỗng	-10.5563
▁soi	-10.5563
▁d	-10.5567
▁hãn	-10.5573
▁pin	-10.5574
▁internet	-10.5581
▁ngắt	-10.5593
▁ổ	-10.562
▁nhủ	-10.5634
▁thụy	-10.5648
▁giòn	-10.5653
▁xót	-10.5705
▁xí	-10.5715
▁quyến	-10.5747
▁voi	-10.5772
▁mốc	-10.5789
▁sói	-10.5795
▁cảng	-10.5826
▁hố	-10.5826
▁giáng	-10.5847
▁huyệt	-10.5849
▁dán	-10.5854
▁phàm	-10.5856
▁rập	-10.5861
▁vít	-10.5882
▁bỏng	-10.5889
▁vuông	-10.5898
▁căm	-10.594
▁thỏ	-10.5941
▁nhóc	-10.5953
▁f	-10.5953
▁đố	-10.5959
▁quế	-10.5962
▁gắt	-10.5965
▁l	-10.5994
▁vướng	-10.5995
▁gầm	-10.5995
▁cám	-10.5996
▁xám	-10.6004
▁tv	-10.607
▁phách	-10.6079
▁trội	-10.6094
▁khâu	-10.6112
▁báu	-10.6115
▁ngõ	-10.6122
▁500	-10.6124
▁khớp	-10.6131
▁ưng	-10.6153
▁ben	-10.6156
▁201	-10.6192
▁hoành	-10.62
▁bì	-10.6215
on	-10.6225
▁gieo	-10.6225
▁mầm	-10.6237
▁ngỡ	-10.6256
▁sườn	-10.6256
▁chật	-10.6269
▁hoãn	-10.6313
▁mảng	-10.632
▁ổng	-10.6329
▁lạm	-10.6332
▁logic	-10.637
▁váy	-10.6377
▁sốc	-10.6387
▁vở	-10.6389
▁clip	-10.6396
▁bơ	-10.6411
▁ven	-10.6417
▁lứa	-10.6434
▁khoe	-10.6438
▁rách	-10.6449
▁bỉ	-10.6451
▁trâm	-10.6473
▁trump	-10.6498
▁rớt	-10.6511
▁gầy	-10.6511
▁pa	-10.6531
▁dưa	-10.6535
▁khải	-10.6542
▁p	-10.6596
▁ngần	-10.6628
▁nhựa	-10.6641
▁thét	-10.6641
▁đạm	-10.6654
▁nhung	-10.6665
▁km	-10.6689
ch	-10.6695
▁há	-10.6714
▁cháo	-10.672
▁nhượng	-10.674
▁khuẩn	-10.674
▁phế	-10.6799
▁xào	-10.6801
▁chốn	-10.6805
▁cóc	-10.6819
▁vác	-10.6819
▁phơi	-10.6827
▁khiếu	-10.6844
le	-10.6851
▁tọa	-10.686
▁oan	-10.6881
▁hước	-10.6886
▁sâm	-10.6886
▁trắc	-10.69
▁thê	-10.6904
▁tỏi	-10.6924
▁toan	-10.6944
▁gậy	-10.6967
▁rễ	-10.6967
▁cối	-10.6986
▁khốc	-10.6988
▁ngất	-10.7001
▁gớm	-10.7008
▁khiêu	-10.7012
▁nôn	-10.7031
▁xì	-10.7041
▁lột	-10.7044
▁léo	-10.7069
▁bóc	-10.7071
▁nhĩ	-10.711
▁quấy	-10.7117
▁hạch	-10.7149
nh	-10.7197
▁giặt	-10.7206
▁chôn	-10.7227
▁cưng	-10.723
▁nàn	-10.7248
▁2022	-10.7269
▁tang	-10.7283
▁my	-10.7299
in	-10.7317
▁vịt	-10.7351
▁ngao	-10.7358
b	-10.7364
▁nể	-10.7368
▁ong	-10.737
▁vuốt	-10.7374
▁vẫy	-10.7423
▁lách	-10.7426
▁ê	-10.7455
▁phẫn	-10.7459
▁kìm	-10.7476
▁gìn	-10.7504
▁ngửa	-10.7537
▁tăm	-10.7544
▁youtube	-10.7578
▁pi	-10.759
▁21	-10.7611
▁cụm	-10.7615
▁cài	-10.7629
▁trói	-10.7645
▁kép	-10.7656
▁thiêng	-10.7661
▁tràng	-10.7686
▁kình	-10.7689
▁tẩy	-10.7703
▁nan	-10.771
▁vụn	-10.7712
▁khoát	-10.7725
▁ranh	-10.7726
▁râu	-10.774
▁thầu	-10.774
▁thối	-10.7755
▁hạc	-10.7758
▁lặn	-10.7768
▁té	-10.7782
▁mẫn	-10.7784
▁vầy	-10.7784
▁vặn	-10.7791
▁quyên	-10.7791
▁phất	-10.7798
▁trèo	-10.7813
▁chè	-10.7814
▁nhí	-10.7823
▁dê	-10.7829
▁hông	-10.7835
▁vu	-10.785
▁rỗi	-10.7865
▁trán	-10.7867
▁ủ	-10.7874
▁camera	-10.7894
▁thục	-10.7897
▁ngụy	-10.7902
▁nâu	-10.7916
▁nhọn	-10.7917
▁dẻo	-10.7924
▁lười	-10.7961
▁ván	-10.7962
▁bệ	-10.797
▁nạ	-10.7973
▁nhăn	-10.7975
▁suýt	-10.7976
▁bàng	-10.8
▁chanh	-10.8004
▁like	-10.8006
▁am	-10.8028
▁tánh	-10.8033
▁đậy	-10.8051
▁vượng	-10.8051
▁gò	-10.8064
▁nato	-10.8074
▁covid	-10.8089
▁tản	-10.8094
▁náo	-10.8097
▁chuồng	-10.8112
▁chen	-10.812
▁trêu	-10.8134
▁o	-10.8134
▁ráo	-10.8157
▁phẳng	-10.8165
▁thự	-10.8225
▁cừu	-10.8241
▁thiêu	-10.8242
▁khiết	-10.827
▁điềm	-10.8283
▁quạt	-10.8311
▁phiêu	-10.8319
▁lều	-10.8327
▁ngụ	-10.8329
▁hụt	-10.8334
▁lụa	-10.8334
▁cu	-10.8364
▁lót	-10.8404
▁dâm	-10.8419
▁xưởng	-10.8419
▁tịnh	-10.842
▁nhốt	-10.8427
▁xi	-10.844
▁buồng	-10.8442
▁tụng	-10.8449
▁nạt	-10.8483
▁cong	-10.8496
▁đùng	-10.8498
▁cua	-10.85
▁email	-10.8506
▁đũa	-10.8514
▁nguội	-10.8514
▁úc	-10.8514
▁vắc	-10.8529
▁bành	-10.8533
▁me	-10.8537
▁thảy	-10.8541
▁lay	-10.8557
▁cước	-10.8561
▁luộc	-10.8577
▁tào	-10.8603
f	-10.8604
▁web	-10.8615
▁ngừa	-10.8617
▁kha	-10.8632
▁nếm	-10.8633
▁lí	-10.8645
en	-10.8652
▁bồn	-10.8655
▁van	-10.8667
▁chay	-10.8667
▁hãm	-10.8681
▁go	-10.8691
▁phổi	-10.8702
▁lóe	-10.8705
▁dai	-10.8706
▁lạng	-10.8727
ing	-10.8748
▁thẳm	-10.8761
▁tị	-10.8768
▁lội	-10.8778
▁rùa	-10.8818
▁đính	-10.8826
▁mợ	-10.886
▁chuyền	-10.8867
▁quấn	-10.8867
▁vãn	-10.8869
▁thẹn	-10.8875
▁rót	-10.8908
▁rải	-10.8908
▁xoáy	-10.8924
▁khoáng	-10.8944
▁nhét	-10.8958
▁phen	-10.8962
▁cúc	-10.8976
▁bọt	-10.8983
▁gom	-10.8984
▁lóc	-10.8991
▁sập	-10.9007
▁đái	-10.9021
▁chà	-10.905
▁nhào	-10.9055
▁tuyền	-10.9061
▁bầy	-10.9065
▁dàn	-10.9073
▁lấn	-10.909
▁ấu	-10.9098
▁york	-10.9107
▁hé	-10.913
▁dồi	-10.9132
▁rệt	-10.9166
▁đê	-10.9178
▁súc	-10.9191
▁khanh	-10.92
▁nhai	-10.922
▁rít	-10.9225
▁oai	-10.9234
▁lẽo	-10.9252
▁huỳnh	-10.9259
▁lúng	-10.9259
▁bu	-10.9262
▁gi	-10.9283
▁đục	-10.931
▁bẻ	-10.931
▁thình	-10.9318
▁chói	-10.9338
▁phàn	-10.9353
▁trợn	-10.9356
▁khoăn	-10.9363
▁sừng	-10.9378
▁lì	-10.9436
▁bitcoin	-10.9439
▁tuôn	-10.9455
▁thủng	-10.9478
▁bần	-10.9482
▁22	-10.952
▁ráng	-10.9526
▁xăm	-10.9534
▁măng	-10.9543
▁đùi	-10.9552
▁toát	-10.9561
▁xua	-10.9595
▁láng	-10.9596
▁gượng	-10.9605
▁ngước	-10.9631
▁nhức	-10.964
▁ướp	-10.9649
▁300	-10.9682
▁bổng	-10.9687
▁nầy	-10.9693
▁lọ	-10.97
▁tòng	-10.9706
▁lạt	-10.9708
▁búa	-10.972
▁nến	-10.9755
▁củi	-10.977
▁lũng	-10.978
▁loa	-10.9783
▁phô	-10.9792
▁uyên	-10.98
▁xui	-10.9812
v	-10.9829
▁nhậu	-10.9836
▁băn	-10.9844
▁vịnh	-10.9851
▁ve	-10.9871
x	-10.9887
▁chặng	-10.9904
▁xen	-10.9917
▁len	-10.992
▁23	-10.9927
▁hừ	-10.9934
▁họng	-10.9935
▁vắt	-10.9936
▁chảo	-10.994
▁nại	-10.9956
▁nứt	-10.9981
▁roi	-10.999
▁thắp	-11.0009
▁en	-11.0018
▁sáo	-11.0027
▁sững	-11.0045
▁xảo	-11.0047
▁khăng	-11.0047
▁xách	-11.0055
ack	-11.0086
▁uyển	-11.0092
▁david	-11.011
▁chiêm	-11.011
▁phì	-11.0128
▁quầy	-11.0138
▁titan	-11.0175
▁điêu	-11.018
▁nhổ	-11.0192
▁đẽ	-11.0202
▁điếu	-11.0209
▁rể	-11.0231
▁thung	-11.024
ta	-11.0255
▁chạp	-11.0287
w	-11.0296
▁facebook	-11.0297
▁ru	-11.0314
▁tặc	-11.0316
▁ngẩng	-11.0318
▁sam	-11.0382
▁mép	-11.0382
man	-11.0385
▁2021	-11.0401
▁thạo	-11.043
▁thốn	-11.044
▁rã	-11.0475
▁comment	-11.0497
▁putin	-11.0497
▁sùng	-11.0507
▁lãm	-11.0527
▁miếu	-11.0535
▁ka	-11.0538
▁đu	-11.0558
▁thò	-11.0561
▁r	-11.0563
▁bún	-11.0567
▁vơ	-11.0601
▁sảnh	-11.0607
▁bưng	-11.0613
▁lượn	-11.0622
▁rùng	-11.0623
▁ngoãn	-11.0632
il	-11.0634
▁ngán	-11.0661
▁thắn	-11.068
▁mâm	-11.0681
▁rậm	-11.0681
▁vóc	-11.0691
▁paris	-11.0701
▁liêm	-11.0711
▁marketing	-11.074
▁le	-11.0752
▁son	-11.0769
▁quẩn	-11.079
▁vớt	-11.08
▁bơm	-11.0802
▁top	-11.0809
▁nghiền	-11.081
▁biden	-11.081
▁phiến	-11.081
▁văng	-11.0819
▁thomas	-11.0839
▁giếng	-11.0859
▁lẩm	-11.0859
▁kề	-11.0868
▁bồng	-11.0876
▁lanh	-11.0894
▁lốc	-11.091
▁bùn	-11.0916
▁lẹ	-11.092
▁xay	-11.0924
▁nhiễu	-11.0939
▁chênh	-11.094
▁vấp	-11.098
▁nhũng	-11.098
na	-11.1007
▁khoang	-11.103
▁toa	-11.103
▁tp	-11.1045
▁pro	-11.1048
▁nhích	-11.1071
▁sửng	-11.1074
▁mớ	-11.1079
ka	-11.1083
▁mênh	-11.1084
▁tấp	-11.1102
▁pho	-11.1115
▁bừa	-11.1122
▁ngậm	-11.1122
▁nham	-11.1139
▁cược	-11.1142
▁đặn	-11.1162
▁de	-11.1165
▁dơ	-11.117
▁tui	-11.1178
el	-11.1178
▁phonos	-11.1194
▁lít	-11.1227
▁eo	-11.1229
▁of	-11.1248
▁mỉ	-11.1253
▁vụt	-11.1281
▁henry	-11.1287
▁vê	-11.1309
▁sưu	-11.131
▁úy	-11.1329
▁nhõm	-11.1339
▁hủ	-11.1379
▁kẹp	-11.1381
▁vớ	-11.1384
▁lận	-11.1402
▁lở	-11.1407
to	-11.1418
ri	-11.142
▁rẩy	-11.1455
▁qu	-11.1456
▁bậy	-11.1476
ra	-11.149
▁ghe	-11.15
▁mít	-11.1509
▁ngác	-11.1518
▁thoạt	-11.154
▁rồ	-11.1542
▁hất	-11.1562
▁nít	-11.1572
▁vành	-11.1572
▁ngả	-11.1624
▁nai	-11.1636
▁rong	-11.1645
▁virus	-11.1648
▁trạch	-11.1648
▁reo	-11.1648
▁đả	-11.1657
▁cồn	-11.1669
▁rô	-11.1673
▁ngủi	-11.1676
▁lề	-11.1677
▁xao	-11.1679
▁đẫm	-11.1691
▁trảm	-11.1749
▁be	-11.1763
▁diệm	-11.1778
▁35	-11.1788
▁google	-11.1789
▁mịt	-11.179
▁trá	-11.1797
▁ngớ	-11.18
▁nghiến	-11.18
▁yết	-11.1801
▁bill	-11.181
▁michael	-11.1833
▁chóc	-11.1838
▁nhẹn	-11.1845
▁xê	-11.1849
▁phỉ	-11.1855
▁tột	-11.1866
▁ngửi	-11.1866
▁chậu	-11.1877
▁dật	-11.1877
▁quất	-11.1899
▁bịt	-11.1916
▁nín	-11.1921
▁hoạn	-11.1925
▁lu	-11.1931
▁mấu	-11.1932
▁mịn	-11.195
▁rụng	-11.1955
▁cọc	-11.1955
▁xỉ	-11.1958
▁dệt	-11.1999
▁nghênh	-11.201
▁bầm	-11.2033
▁buffett	-11.2033
▁lư	-11.2033
an	-11.2033
▁nhấp	-11.2044
vê	-11.2064
▁phùng	-11.2066
▁mary	-11.2069
▁giùm	-11.2089
▁rước	-11.2089
▁rổ	-11.2089
▁át	-11.2108
▁ải	-11.2117
▁giỏ	-11.2121
▁đấng	-11.2123
▁vùi	-11.2124
▁vú	-11.2133
▁quật	-11.2134
▁nhô	-11.214
▁dực	-11.2145
▁sầm	-11.2168
▁luyến	-11.218
▁ken	-11.219
▁apple	-11.2191
▁khoanh	-11.2198
▁khâm	-11.2214
or	-11.2216
▁kĩ	-11.2231
▁chướng	-11.2271
▁sỏi	-11.2272
▁ập	-11.2276
▁ngóng	-11.2293
▁iran	-11.2294
▁chầm	-11.2306
▁liêng	-11.2308
▁khuấy	-11.2317
▁tưới	-11.2318
▁mị	-11.2332
us	-11.2348
▁phở	-11.2352
▁háo	-11.2353
▁harry	-11.2363
▁sô	-11.2386
▁hạm	-11.2387
▁trơ	-11.2388
▁méo	-11.2399
▁trù	-11.2413
▁bả	-11.2425
▁fan	-11.2441
▁nhúng	-11.2446
▁vò	-11.2458
▁series	-11.2468
▁nón	-11.2485
▁lộng	-11.2488
▁chẩn	-11.2492
▁trút	-11.2495
▁lầy	-11.2503
▁bướm	-11.2515
▁rợn	-11.2517
▁gáy	-11.2527
▁sút	-11.2527
▁nhấc	-11.2551
▁peter	-11.2551
▁dè	-11.2555
▁hoi	-11.2591
▁rạch	-11.2598
▁sấm	-11.261
▁càn	-11.262
▁dằn	-11.2621
la	-11.2622
▁sủa	-11.2622
te	-11.2633
▁kẽ	-11.2656
▁giỡn	-11.2658
▁rạp	-11.267
▁độn	-11.2682
▁mao	-11.2688
▁giò	-11.2698
▁khóe	-11.2713
▁đệm	-11.2716
▁bo	-11.2718
▁31	-11.272
▁đèo	-11.2743
▁washington	-11.2753
▁cò	-11.2755
▁nhì	-11.2772
al	-11.2795
▁khan	-11.2797
▁giục	-11.2802
▁bạt	-11.2802
▁rỉ	-11.2825
▁tiếu	-11.2826
▁diêm	-11.2826
▁lạy	-11.2829
▁paul	-11.2831
th	-11.2842
▁mỗ	-11.2848
▁sét	-11.2851
▁bón	-11.2853
ro	-11.2866
▁ngặt	-11.2887
▁cúp	-11.289
▁rạng	-11.29
▁chát	-11.2911
▁miệt	-11.2911
▁th	-11.2917
▁búp	-11.2924
▁giở	-11.2948
▁lửng	-11.2948
▁bọ	-11.2952
▁cẩu	-11.2961
▁nghẹn	-11.2961
▁lụy	-11.2961
▁rầm	-11.2973
da	-11.2986
▁hãnh	-11.2987
▁hốc	-11.2999
▁keo	-11.301
▁cày	-11.303
▁ngưu	-11.305
▁quăng	-11.3072
▁hẻm	-11.3084
▁chùm	-11.3097
▁liêu	-11.3109
do	-11.3121
▁mướn	-11.3122
▁vũng	-11.3123
▁đới	-11.3134
▁niêm	-11.3147
▁mu	-11.3153
▁taxi	-11.3172
▁tẻ	-11.3172
▁khùng	-11.3172
▁nguyền	-11.3185
▁lậu	-11.3197
▁ây	-11.3202
os	-11.3205
▁rên	-11.3216
▁re	-11.3218
▁toilet	-11.3222
▁tẩu	-11.3248
▁cào	-11.3258
▁trảo	-11.3271
▁mường	-11.3273
▁giã	-11.3286
▁đun	-11.3292
▁hitler	-11.3298
▁chao	-11.3302
▁bong	-11.3306
▁vẩn	-11.3311
▁lẫy	-11.3311
▁thím	-11.3312
▁robot	-11.3312
▁chan	-11.3313
▁cưỡi	-11.3324
▁eu	-11.3327
▁đán	-11.3341
▁sỉ	-11.3362
▁mark	-11.3376
▁ngượng	-11.3388
▁cút	-11.3393
▁ch	-11.3395
▁thán	-11.3413
▁cấy	-11.3427
▁nhồi	-11.3453
▁al	-11.3476
▁online	-11.3478
▁dào	-11.3479
▁nhàm	-11.3481
▁buýt	-11.3491
▁chuộng	-11.3491
▁mo	-11.351
▁dấn	-11.3517
▁ngấm	-11.3517
▁gót	-11.353
▁chập	-11.3556
▁tanh	-11.3565
▁singapore	-11.3569
▁dông	-11.3609
▁hờ	-11.3615
▁đò	-11.3632
▁phai	-11.3632
▁gân	-11.3648
▁cáp	-11.3649
▁hoà	-11.3666
▁lừng	-11.3675
▁đờ	-11.3679
ie	-11.3679
▁cọ	-11.3689
▁hức	-11.3701
▁kh	-11.3707
▁400	-11.3721
▁gay	-11.3745
▁bôi	-11.3756
▁dời	-11.3795
▁xoài	-11.3821
▁podcast	-11.3835
▁nỡ	-11.3835
▁chèo	-11.3836
▁nhúc	-11.3849
▁dẫm	-11.3861
▁usd	-11.3863
▁vút	-11.3876
▁khiếm	-11.3893
▁còi	-11.3904
▁rú	-11.391
▁trỏ	-11.3914
▁giềng	-11.3915
▁rộ	-11.3924
ba	-11.3927
▁đốn	-11.394
▁sụt	-11.3943
▁chót	-11.3951
▁nhện	-11.3956
▁côi	-11.3977
▁then	-11.3995
▁khuê	-11.3999
▁hu	-11.4018
▁lình	-11.4025
▁cụt	-11.4039
▁nh	-11.4049
▁rành	-11.4052
▁hổng	-11.4057
▁thâu	-11.4066
▁siết	-11.4079
▁khương	-11.4093
▁sưng	-11.4096
son	-11.4101
▁ngạt	-11.4107
▁hễ	-11.4135
▁adam	-11.4135
▁2020	-11.4137
▁gàng	-11.4151
▁chắp	-11.4162
▁trổ	-11.4174
▁níu	-11.4176
▁trướng	-11.4176
▁ỏi	-11.4177
▁quách	-11.4178
▁vo	-11.4179
▁tạc	-11.4192
▁thoa	-11.4202
▁bô	-11.422
▁bùa	-11.4224
▁he	-11.4226
vi	-11.423
ma	-11.4239
▁will	-11.4247
▁sáp	-11.426
▁link	-11.4291
▁robert	-11.4301
▁nấp	-11.4302
▁nhíu	-11.4303
▁nice	-11.4361
▁gu	-11.4368
▁thòi	-11.4375
▁vòi	-11.4418
▁bưu	-11.443
▁úp	-11.443
▁tro	-11.4431
▁phanh	-11.4434
▁ko	-11.4448
▁campuchia	-11.4458
▁thùy	-11.4483
▁hòm	-11.4521
▁dép	-11.4559
▁gặt	-11.4573
▁canada	-11.4617
▁han	-11.4633
▁lả	-11.4642
▁dạn	-11.4663
▁ngụm	-11.4663
▁nuối	-11.4689
▁chéo	-11.4704
▁gừng	-11.4704
▁vù	-11.471
▁nết	-11.4719
▁yếm	-11.4719
▁nêm	-11.4721
▁rầu	-11.4733
▁rà	-11.4739
▁tửu	-11.4758
▁xắn	-11.4763
▁guy	-11.4793
▁kiêng	-11.4793
▁nỉ	-11.4807
▁nhộn	-11.4836
▁cưa	-11.4839
▁choáng	-11.4852
▁ngà	-11.4871
▁uốn	-11.4895
▁mận	-11.4896
▁bra	-11.491
▁đọng	-11.4927
▁cuống	-11.4927
▁mẹo	-11.4936
▁ngùng	-11.4941
▁mách	-11.4946
▁lã	-11.495
▁philippines	-11.4956
▁quyện	-11.4957
▁steve	-11.4958
▁điếm	-11.4976
▁lút	-11.5002
▁nhợt	-11.5017
ia	-11.5028
▁ngoặt	-11.5032
▁nhậm	-11.5032
▁nhơn	-11.5034
▁nóc	-11.5061
▁rụt	-11.5062
ắk	-11.5092
▁hách	-11.5093
▁tía	-11.5117
▁chì	-11.512
▁bự	-11.5122
▁ngỏ	-11.5123
ed	-11.513
▁chuộc	-11.5138
▁bới	-11.5139
▁ngớt	-11.514
▁chọi	-11.5169
▁que	-11.5188
▁bú	-11.5203
▁cạo	-11.5215
▁bân	-11.523
▁nhạo	-11.5231
▁kiêm	-11.5246
▁loáng	-11.5262
▁bìa	-11.528
▁sọ	-11.5307
▁hì	-11.5308
▁ngứa	-11.5308
ll	-11.5325
▁ngàng	-11.5326
▁tụt	-11.5331
▁bời	-11.5331
▁lẳng	-11.5355
▁tuột	-11.5355
▁táng	-11.536
▁ngãi	-11.5366
▁se	-11.5372
▁app	-11.5377
lo	-11.538
▁chước	-11.5386
▁ngạn	-11.5388
▁sạc	-11.5401
▁xáo	-11.5405
▁tít	-11.5412
▁neo	-11.542
es	-11.5424
▁uất	-11.5434
sa	-11.5444
li	-11.5455
▁cội	-11.5466
▁đôn	-11.5486
et	-11.5525
▁huyên	-11.5529
▁cau	-11.5533
▁32	-11.554
▁hắt	-11.5544
▁ngời	-11.5549
▁múc	-11.556
ml	-11.5561
▁sệt	-11.5561
▁alex	-11.5568
ce	-11.5574
▁london	-11.5592
▁khay	-11.5594
▁hờn	-11.5615
▁com	-11.5624
▁thuở	-11.5641
▁rơm	-11.5657
▁biếng	-11.5669
é	-11.5682
▁ròng	-11.5689
▁xộn	-11.5705
▁giông	-11.5705
ck	-11.5709
cm	-11.5711
▁34	-11.573
▁iphone	-11.5754
▁vạt	-11.5787
▁euro	-11.5791
▁khuynh	-11.5803
ar	-11.5814
▁gù	-11.5834
▁hú	-11.5843
▁charlie	-11.5852
▁choàng	-11.5857
▁cameraman	-11.5885
▁nhún	-11.5901
▁gươm	-11.5901
▁bói	-11.5915
▁real	-11.5952
st	-11.5957
oe	-11.5959
▁phớt	-11.5967
▁nao	-11.5993
▁năn	-11.6
▁trỗi	-11.6001
▁play	-11.6003
▁xuyến	-11.6017
▁tể	-11.6034
▁hoán	-11.6046
▁quậy	-11.6051
▁láo	-11.6053
▁đốm	-11.6055
▁33	-11.6063
▁nức	-11.6068
▁xuồng	-11.6085
▁mải	-11.6085
▁richard	-11.6101
▁oxy	-11.6101
▁phồng	-11.6102
▁kè	-11.6104
▁cù	-11.611
▁indonesia	-11.6135
▁thắm	-11.6135
▁bịch	-11.6146
▁bưởi	-11.6152
▁nhói	-11.6187
▁tru	-11.6193
▁thong	-11.6205
▁huân	-11.6237
is	-11.6244
sh	-11.6287
▁thừng	-11.6289
▁phào	-11.6289
▁chiết	-11.629
▁cặn	-11.6306
▁phím	-11.6315
▁iraq	-11.6323
▁nhiếp	-11.6323
▁lụt	-11.634
▁lẫm	-11.6375
▁ronaldo	-11.6375
▁xiết	-11.6375
▁nhuệ	-11.639
▁kiệu	-11.6392
▁xiêm	-11.6392
▁cợt	-11.6392
▁bar	-11.6397
▁ngầu	-11.6409
▁vía	-11.6411
▁lon	-11.6423
▁sophie	-11.6427
▁giương	-11.6427
▁rầy	-11.6444
▁ngách	-11.6445
▁eli	-11.6451
▁ngoạn	-11.6462
▁tẩm	-11.6462
▁khử	-11.6462
▁mỉa	-11.6464
▁cáu	-11.6468
▁150	-11.6481
▁ng	-11.6494
▁vỉa	-11.6497
▁điểu	-11.6522
▁thinh	-11.6524
▁dải	-11.6532
▁blog	-11.6549
▁thạc	-11.6566
▁sẹo	-11.6567
▁ếch	-11.6571
ss	-11.6573
▁nang	-11.6578
ames	-11.6587
▁diều	-11.6603
▁nhạn	-11.661
▁dỗi	-11.6611
pa	-11.6617
▁hcm	-11.662
▁xẻ	-11.6635
▁sắn	-11.6637
▁mượt	-11.6656
▁xịt	-11.6656
▁sòng	-11.6657
▁nhỡ	-11.6673
▁nhảm	-11.6692
▁hannibal	-11.6727
ko	-11.6731
ly	-11.6739
▁chuồn	-11.6744
▁héo	-11.6747
▁ui	-11.6747
▁mạ	-11.675
ay	-11.6753
▁võng	-11.6761
▁vần	-11.6762
▁tởm	-11.6763
▁ảm	-11.6771
▁xù	-11.6781
se	-11.6785
ter	-11.6794
▁bướng	-11.6799
▁stress	-11.6799
▁ráp	-11.6799
▁mó	-11.6805
yme	-11.6808
▁vãi	-11.6809
▁chip	-11.6816
▁lẩn	-11.6817
▁nhuyễn	-11.6817
▁hũ	-11.6817
▁tụy	-11.6823
▁nheo	-11.6836
▁rán	-11.6838
▁ló	-11.6839
▁ray	-11.6844
re	-11.6845
▁quýt	-11.6866
▁sảng	-11.6869
▁samsung	-11.6872
▁thềm	-11.6877
▁dong	-11.6905
▁edward	-11.6908
▁tom	-11.691
▁tơi	-11.6914
▁nhằn	-11.6925
▁khuếch	-11.6927
▁tạt	-11.6931
▁hoay	-11.6933
▁hí	-11.6939
▁oành	-11.6945
▁rình	-11.6945
▁lìa	-11.6966
it	-11.6979
▁khê	-11.698
▁tiệp	-11.7
▁sực	-11.7009
▁ama	-11.7013
▁gọt	-11.7037
▁45	-11.7042
▁xoắn	-11.7055
▁cọp	-11.7056
im	-11.7061
▁alo	-11.707
▁dãi	-11.7081
▁harvard	-11.7092
ton	-11.7107
▁lượm	-11.7111
▁vá	-11.7115
▁tấu	-11.713
▁đút	-11.713
▁world	-11.7131
▁ne	-11.714
▁dỡ	-11.7148
▁mía	-11.715
▁dìu	-11.7152
▁nhâm	-11.7167
▁william	-11.7174
▁gả	-11.7185
▁anime	-11.7188
▁sành	-11.7191
▁ế	-11.7193
▁hóc	-11.7205
▁vầng	-11.7206
▁hời	-11.7207
▁tr	-11.7217
co	-11.7221
▁giàn	-11.7226
▁po	-11.7256
▁lùn	-11.7264
▁bạ	-11.727
▁tòi	-11.7273
▁rông	-11.7283
▁loay	-11.7287
▁subscribe	-11.7318
▁vệt	-11.7318
▁lố	-11.7333
▁lự	-11.7335
▁fpt	-11.7337
▁chừa	-11.7338
▁w	-11.7344
un	-11.7369
ha	-11.7371
▁nã	-11.7372
▁nòng	-11.7376
▁cằn	-11.7377
▁lóng	-11.7396
▁vôi	-11.7397
▁trệ	-11.7403
▁túm	-11.7411
30	-11.7411
▁uổng	-11.7414
▁phò	-11.7432
▁nung	-11.7434
▁sộ	-11.7446
▁biếu	-11.7453
▁xỉu	-11.7473
▁ganh	-11.7478
ard	-11.7481
gi	-11.7497
▁gán	-11.7499
▁hực	-11.751
▁kỉ	-11.7549
▁dậu	-11.7549
▁tâu	-11.7549
ne	-11.7561
▁kông	-11.7569
▁sạt	-11.7569
▁quáng	-11.7576
▁bai	-11.7578
▁nới	-11.7667
▁xịn	-11.7673
mi	-11.7674
▁mí	-11.7702
▁lẩu	-11.7706
▁viếng	-11.7746
▁váng	-11.775
▁rẫy	-11.7766
▁đăm	-11.7766
▁mexico	-11.7786
▁vitamin	-11.7786
▁rè	-11.7804
▁nghẹt	-11.7806
▁banh	-11.7808
▁trọc	-11.7808
▁hơ	-11.7838
▁napoleon	-11.7866
▁max	-11.7875
▁pu	-11.7877
▁nần	-11.7886
▁ắt	-11.7891
▁smith	-11.7906
▁chùi	-11.7906
▁thóc	-11.7906
▁xèo	-11.7906
▁bon	-11.7916
▁hòng	-11.7919
▁xôn	-11.7923
50	-11.7934
▁bênh	-11.7945
▁skibidi	-11.7967
▁holmes	-11.8007
▁donald	-11.8007
▁sun	-11.8018
ine	-11.8039
▁toà	-11.8044
▁câm	-11.8048
▁hót	-11.8048
▁thon	-11.806
▁vun	-11.8063
▁tiktok	-11.8068
▁khét	-11.8069
▁maria	-11.8083
▁nực	-11.8089
▁te	-11.8109
ry	-11.8134
der	-11.815
▁đực	-11.8151
▁chải	-11.8152
▁nhoáng	-11.8172
▁website	-11.8172
bi	-11.8185
▁vẹo	-11.8193
▁rọi	-11.8193
no	-11.8197
▁nhuộm	-11.8213
▁xướng	-11.8213
▁hớn	-11.8215
▁luồn	-11.8233
▁lim	-11.8236
▁mé	-11.8242
▁gắp	-11.8255
▁protein	-11.8255
▁2025	-11.8255
▁xẻo	-11.8256
▁phác	-11.8267
▁dí	-11.8274
▁giấm	-11.8276
▁tì	-11.8295
▁lèo	-11.8298
▁tem	-11.831
▁kí	-11.8311
▁sarah	-11.8318
▁om	-11.8326
▁ngạch	-11.8334
▁quí	-11.8338
▁bứt	-11.8339
▁bịa	-11.8367
▁tủi	-11.8375
▁thuyên	-11.8381
▁vơi	-11.8386
go	-11.8396
▁uav	-11.8402
▁úng	-11.8404
▁bính	-11.8411
▁hột	-11.8415
▁trăn	-11.8423
▁gợn	-11.8424
▁radio	-11.8424
▁tiệt	-11.8424
▁martin	-11.8437
▁ngoảnh	-11.8445
▁khiêng	-11.8446
▁gồng	-11.8467
ca	-11.8484
▁tý	-11.8488
▁hot	-11.8513
▁dầm	-11.8531
▁mụn	-11.8537
▁and	-11.8537
▁microsoft	-11.8552
▁kiev	-11.8552
▁ruồi	-11.8574
▁găng	-11.8574
▁dứa	-11.8595
▁chích	-11.8616
at	-11.8621
▁nịnh	-11.8639
▁buồm	-11.866
▁mậu	-11.866
▁lựu	-11.8661
▁kèo	-11.8661
▁tony	-11.8682
▁liếm	-11.8682
▁mè	-11.8699
▁tỳ	-11.8704
▁dĩa	-11.8705
▁hớt	-11.8726
ga	-11.873
▁bung	-11.8731
▁league	-11.8748
▁vy	-11.8763
▁xú	-11.8811
▁kant	-11.8825
me	-11.8837
▁dốt	-11.8858
▁laptop	-11.8858
▁trãi	-11.888
▁khoẻ	-11.8881
ru	-11.8896
ki	-11.8897
▁nhẽ	-11.8902
▁xít	-11.8906
▁vén	-11.8913
pter	-11.8913
▁tho	-11.8923
▁núp	-11.8925
▁đần	-11.8925
ts	-11.8927
▁loki	-11.893
▁xơ	-11.8946
▁hỉ	-11.8947
kg	-11.8954
▁yu	-11.8962
▁lẻn	-11.8987
▁sấu	-11.8992
▁red	-11.8992
▁cẳng	-11.9015
pe	-11.9016
▁kén	-11.9017
abeth	-11.9018
▁gãi	-11.9034
▁up	-11.904
▁phao	-11.9043
ad	-11.905
▁is	-11.9058
▁luống	-11.906
▁tesla	-11.906
▁on	-11.9068
▁dẻ	-11.9082
▁thớt	-11.9083
ti	-11.9097
▁chang	-11.9109
▁dùm	-11.9111
▁nê	-11.9119
▁kg	-11.9129
▁charles	-11.9151
▁xiên	-11.9151
▁hù	-11.9164
▁nguôi	-11.9174
▁dexter	-11.9197
▁thây	-11.9197
▁gates	-11.922
▁kíp	-11.9243
▁tokyo	-11.9266
▁khờ	-11.9266
▁tép	-11.9268
▁bốt	-11.9275
ke	-11.9279
be	-11.9289
▁team	-11.9289
▁riết	-11.9289
▁california	-11.9312
▁sưởi	-11.9312
▁tiều	-11.9312
▁ram	-11.9316
▁lia	-11.9324
▁viền	-11.9336
ean	-11.9342
▁ngòi	-11.936
▁trẻo	-11.9379
▁gắm	-11.9382
▁chần	-11.9382
▁sí	-11.9406
▁musk	-11.9407
▁tỉa	-11.9413
▁cuồn	-11.9428
▁mẩu	-11.9429
▁shop	-11.9431
▁súp	-11.9453
▁vạ	-11.9453
▁thuỷ	-11.9453
▁bộn	-11.9458
▁nom	-11.9462
▁gốm	-11.9476
▁bục	-11.9476
di	-11.9489
▁rao	-11.9495
▁xuẩn	-11.95
▁sục	-11.95
▁hamas	-11.9524
▁ứa	-11.9524
▁cup	-11.9537
ot	-11.9537
▁băm	-11.9548
▁tợn	-11.9549
▁phảng	-11.9559
▁trụi	-11.9567
▁lấm	-11.9571
▁tráo	-11.9573
▁mìn	-11.9575
mo	-11.9581
▁acid	-11.9595
▁gáp	-11.9595
▁trọt	-11.9599
▁un	-11.9618
▁yoga	-11.9619
▁hello	-11.9619
chi	-11.9623
▁lee	-11.9632
▁catherine	-11.9643
▁dấp	-11.9643
▁vèo	-11.9643
▁cỏi	-11.9644
ol	-11.9646
▁buốt	-11.9667
▁kẻo	-11.9674
▁hừng	-11.9695
▁nhăm	-11.9715
▁dang	-11.9724
▁sỹ	-11.974
▁test	-11.9755
▁canxi	-11.9764
▁niu	-11.9787
bo	-11.9789
▁ngói	-11.9799
▁rưng	-11.9812
▁đít	-11.9812
▁ngông	-11.983
▁vái	-11.9888
ai	-11.9889
▁ren	-11.9929
▁tấc	-11.9935
ker	-11.9947
eff	-11.9954
ane	-11.9969
▁lù	-11.9971
▁mương	-11.9985
▁vét	-11.9991
▁hỡi	-12.001
▁triền	-12.0035
▁cuốc	-12.006
▁phộng	-12.006
▁ceo	-12.006
▁trailer	-12.0062
▁sặc	-12.0085
▁george	-12.0085
▁2015	-12.0087
▁trầu	-12.011
▁noel	-12.0111
▁ùa	-12.0111
de	-12.0157
ve	-12.0161
▁nhả	-12.0174
io	-12.0198
▁ớ	-12.0205
▁taylor	-12.0211
ge	-12.0214
▁ổi	-12.0219
▁dấy	-12.0236
▁mứt	-12.0236
▁khỏa	-12.0237
shi	-12.0242
ov	-12.0263
▁tủy	-12.0268
▁đóa	-12.0284
▁hấn	-12.0287
▁xẹt	-12.0288
▁mạt	-12.0289
ong	-12.0311
▁gấm	-12.0313
▁ỷ	-12.0318
▁phà	-12.0329
▁tưng	-12.0331
▁cộ	-12.0332
▁chẩm	-12.0339
▁tua	-12.0352
▁nhoi	-12.0353
▁ngợm	-12.0365
▁el	-12.0375
▁gam	-12.0388
▁chày	-12.0393
▁nắn	-12.0415
▁chầu	-12.0416
▁mii	-12.0422
▁nhang	-12.0426
▁đỗi	-12.0433
▁vó	-12.0434
▁gặm	-12.0442
▁biếc	-12.0442
▁chưng	-12.045
▁khư	-12.0467
▁rèm	-12.047
▁file	-12.0471
▁gram	-12.0473
▁khước	-12.0494
▁quặc	-12.0494
▁nhẽo	-12.0495
▁hững	-12.0521
▁thạnh	-12.0521
▁khàn	-12.0537
▁bèo	-12.0542
▁starling	-12.0547
▁cọng	-12.055
▁nôm	-12.0559
á	-12.0578
▁phôi	-12.0579
▁kèn	-12.0592
▁rê	-12.0593
▁victoria	-12.06
▁uỷ	-12.06
▁lùa	-12.0601
▁nhao	-12.061
▁diễu	-12.0626
▁king	-12.0631
▁sưa	-12.0641
▁hổi	-12.0647
▁lincoln	-12.0652
▁vãng	-12.0667
bu	-12.0668
▁qui	-12.0688
▁nách	-12.0706
▁nhút	-12.0706
▁frank	-12.0714
▁chicago	-12.0732
▁cằm	-12.0732
ur	-12.0736
▁vòm	-12.0736
as	-12.0776
▁review	-12.0786
▁phết	-12.079
▁duệ	-12.0799
▁còng	-12.08
▁xòe	-12.0813
▁nập	-12.0813
▁trác	-12.0814
▁thào	-12.0818
▁rủa	-12.082
▁nhó	-12.0834
▁líu	-12.0843
▁khế	-12.0844
▁tròng	-12.0851
▁120	-12.0861
▁toái	-12.0867
▁quắc	-12.0867
▁dăm	-12.0867
▁huyễn	-12.0868
▁cuba	-12.0868
▁hectare	-12.0894
▁khất	-12.0895
▁ngọ	-12.0905
▁mak	-12.0906
▁nôi	-12.0909
▁gờ	-12.092
▁mãng	-12.0922
▁trôn	-12.0922
▁hùm	-12.0924
▁nà	-12.0937
▁chèn	-12.0942
▁messi	-12.0949
▁khiên	-12.0969
▁nẻo	-12.0977
▁ngóc	-12.098
▁xéo	-12.0982
▁ngùi	-12.1004
▁dế	-12.1014
▁sái	-12.1032
▁vụng	-12.1042
va	-12.1044
▁phả	-12.105
▁oa	-12.1063
▁tùm	-12.1065
▁điếc	-12.1071
ê	-12.1085
▁dượng	-12.1087
▁nơ	-12.1111
▁nặc	-12.1115
▁khắt	-12.1115
▁dột	-12.1115
▁rêu	-12.1115
▁st	-12.1119
▁fed	-12.1122
▁disney	-12.1142
▁ngát	-12.1142
▁palestine	-12.1142
▁quyệt	-12.1143
▁ná	-12.1159
▁rát	-12.117
▁khố	-12.1189
▁vế	-12.1206
▁quạ	-12.1212
ion	-12.1215
▁day	-12.1219
▁vladimir	-12.1226
▁2000	-12.1231
▁52	-12.1249
▁city	-12.1255
▁chòi	-12.1255
▁tivi	-12.1255
▁đong	-12.1271
▁at	-12.1291
▁dòm	-12.1299
▁khoá	-12.13
▁hằn	-12.131
▁hường	-12.1311
▁mảy	-12.1312
▁pe	-12.1324
aku	-12.1331
▁ạt	-12.1339
▁min	-12.1348
▁trĩ	-12.1367
▁bét	-12.1395
▁susan	-12.1397
▁toại	-12.1397
▁mịch	-12.1397
▁ku	-12.1418
▁dan	-12.142
▁rìa	-12.1455
▁nài	-12.1456
▁farm	-12.1458
▁nháo	-12.1465
ic	-12.1473
▁nhứt	-12.1483
▁mọn	-12.1483
▁sấp	-12.1486
▁bịnh	-12.1498
▁bít	-12.1502
▁siêng	-12.1512
▁berlin	-12.1512
▁mút	-12.1512
▁rống	-12.1512
▁quàng	-12.1514
▁marie	-12.1518
▁hoạ	-12.152
▁bin	-12.1535
▁larry	-12.1541
▁ét	-12.1559
▁xó	-12.1563
▁gằn	-12.1567
▁chộp	-12.157
▁ù	-12.1572
▁lọi	-12.1576
▁nhè	-12.1586
▁chực	-12.1599
▁55	-12.1605
▁víu	-12.1636
▁sim	-12.1642
▁đơ	-12.165
▁check	-12.166
▁nhếch	-12.1687
km	-12.17
▁nện	-12.1705
▁radar	-12.1729
▁gội	-12.1746
▁trau	-12.175
id	-12.1754
▁sẫm	-12.1776
▁coca	-12.1776
ation	-12.179
▁bùm	-12.1791
▁philip	-12.1805
▁ỉ	-12.1806
▁bỉnh	-12.1806
▁héc	-12.1808
▁phệ	-12.181
▁250	-12.1833
▁chelsea	-12.1835
▁hill	-12.1841
▁gài	-12.185
▁rin	-12.1864
aki	-12.1865
▁phăng	-12.1865
▁bẹp	-12.1866
▁sào	-12.1866
▁thêu	-12.1869
den	-12.1894
po	-12.1917
▁madrid	-12.1925
▁rượt	-12.1956
ina	-12.1961
▁mác	-12.198
▁đanh	-12.1981
▁or	-12.1982
▁chổi	-12.1986
▁nua	-12.1987
▁mini	-12.1987
▁ú	-12.1989
land	-12.2007
▁freud	-12.2016
▁đuốc	-12.2016
▁fa	-12.2023
mm	-12.2031
▁đềm	-12.2044
fa	-12.2045
▁gdp	-12.2047
▁gập	-12.2047
ver	-12.2048
▁boy	-12.2059
▁victor	-12.2077
▁cấn	-12.2077
▁tốp	-12.2078
▁líp	-12.208
ster	-12.2086
ner	-12.2098
▁rãnh	-12.2109
▁thơi	-12.211
ơ	-12.2111
▁mike	-12.2112
ler	-12.2113
▁thụt	-12.2126
▁lòi	-12.2126
▁for	-12.2128
▁show	-12.2139
▁hóng	-12.2139
▁lét	-12.2139
▁ngai	-12.2165
▁phồn	-12.2169
▁táp	-12.2179
▁chris	-12.221
▁um	-12.2214
▁thoả	-12.2228
▁miến	-12.2231
▁malaysia	-12.2232
▁lốp	-12.2233
▁rương	-12.2263
▁group	-12.2263
▁ending	-12.2263
▁đổng	-12.2265
▁it	-12.2273
▁rì	-12.2292
▁ngáy	-12.2294
▁hen	-12.2299
ya	-12.2304
▁ách	-12.2305
ley	-12.2313
ả	-12.2313
▁2014	-12.2327
lin	-12.233
▁lè	-12.2344
▁warren	-12.2357
▁rảo	-12.2357
▁khảm	-12.2381
oseph	-12.2388
▁hăm	-12.2389
▁xốp	-12.2389
▁gởi	-12.2389
▁shin	-12.2407
▁tảo	-12.2415
obs	-12.2416
▁rứt	-12.242
▁tằm	-12.242
▁đật	-12.242
▁xỉn	-12.2435
▁phơ	-12.2445
▁rạc	-12.2451
▁duỗi	-12.2452
▁tuốt	-12.2452
▁lụi	-12.2453
ir	-12.2463
ớ	-12.247
▁pakistan	-12.2484
▁elon	-12.2484
▁set	-12.2485
▁ghim	-12.249
▁shi	-12.2493
20	-12.2509
▁louis	-12.2515
▁lem	-12.2522
▁mar	-12.2541
▁42	-12.2545
▁kị	-12.2546
▁edison	-12.2548
▁soái	-12.2548
▁hên	-12.2553
▁thảnh	-12.2558
▁maya	-12.2574
▁kevin	-12.258
▁matt	-12.2583
▁adn	-12.2585
▁hiu	-12.2587
▁ford	-12.2593
▁toả	-12.2594
▁simon	-12.2598
ku	-12.2604
▁kennedy	-12.2612
▁myanmar	-12.2612
▁nhen	-12.2618
▁thui	-12.2635
▁vợt	-12.2641
▁hợi	-12.2644
▁nhẩm	-12.2644
▁quẹt	-12.2645
▁lết	-12.2645
▁mân	-12.2645
▁phiếm	-12.2645
tt	-12.2645
▁quệ	-12.2648
▁ngút	-12.271
▁sám	-12.271
▁lucy	-12.2742
▁loang	-12.2743
▁ngỗng	-12.2743
▁két	-12.2743
▁trồi	-12.2744
▁billy	-12.2745
▁khom	-12.276
ero	-12.2768
â	-12.2775
▁chồm	-12.2775
▁lõm	-12.2775
▁chững	-12.2784
▁răn	-12.2807
▁xước	-12.2808
▁náy	-12.2809
▁hê	-12.2813
▁god	-12.2837
ombie	-12.2841
▁ngáp	-12.2841
▁nobel	-12.2841
▁ắp	-12.2841
▁boss	-12.2841
▁túp	-12.2852
▁q	-12.2863
▁alexander	-12.2874
▁nán	-12.2879
▁ke	-12.2904
▁bở	-12.2905
▁ghẻ	-12.2907
▁sấy	-12.2907
▁giẫm	-12.2907
▁quây	-12.2907
▁gang	-12.291
▁blue	-12.2923
▁marvel	-12.294
▁anthony	-12.2941
▁blockchain	-12.2941
▁nhấm	-12.2941
▁cốp	-12.2941
▁tèo	-12.2941
▁you	-12.2943
▁ad	-12.295
pp	-12.2972
▁rền	-12.2981
▁kf	-12.3
uột	-12.3031
ho	-12.3035
ấp	-12.3036
▁crypto	-12.3041
▁gỏi	-12.3041
▁moscow	-12.3041
▁2013	-12.3043
▁inch	-12.3058
um	-12.3074
▁chừ	-12.3106
▁moi	-12.3108
▁andrew	-12.3109
▁mần	-12.3109
▁lùm	-12.3111
▁ứ	-12.3117
▁mon	-12.3138
▁fi	-12.3139
▁ngừ	-12.314
▁conan	-12.3142
▁server	-12.3143
▁fu	-12.315
▁dợ	-12.3151
▁đày	-12.3157
▁hun	-12.316
▁giếm	-12.3177
q	-12.3178
▁gao	-12.3188
▁live	-12.3194
▁italia	-12.3211
▁loãng	-12.3211
▁nớt	-12.3211
▁trót	-12.3211
▁scott	-12.3211
▁ngợp	-12.3212
▁as	-12.3216
op	-12.3229
ev	-12.3233
▁nhái	-12.3241
▁sò	-12.3243
▁ekip	-12.3246
▁alice	-12.3246
▁way	-12.3268
▁nhe	-12.3276
▁argentina	-12.328
▁hợt	-12.328
▁lép	-12.328
▁galaxy	-12.3315
ones	-12.3334
▁album	-12.3349
▁black	-12.3384
▁nhòa	-12.3385
▁abel	-12.3386
▁post	-12.3386
▁rắm	-12.3419
▁macbook	-12.3419
si	-12.342
▁sả	-12.3447
▁nhũ	-12.3447
▁ươm	-12.3454
▁cõng	-12.3454
▁vẳng	-12.3455
ty	-12.3457
▁container	-12.349
▁sukuna	-12.349
▁doãn	-12.349
▁xói	-12.3492
ul	-12.3516
wa	-12.3524
▁skippy	-12.3525
▁hẻo	-12.3525
▁biếm	-12.3525
▁búng	-12.3532
▁nhướng	-12.3534
▁dạt	-12.3552
▁khứa	-12.3555
▁babylon	-12.356
ron	-12.3564
▁găm	-12.3596
▁gary	-12.3597
▁cựa	-12.3607
ah	-12.3625
▁australia	-12.3632
▁hươu	-12.3632
▁rằm	-12.3632
om	-12.3635
▁xát	-12.3639
40	-12.3641
▁ửng	-12.3667
▁share	-12.3668
▁nhót	-12.3669
▁nanh	-12.3674
▁ten	-12.3679
rt	-12.3686
so	-12.3691
▁nhơ	-12.3698
▁lịnh	-12.3704
ut	-12.3708
▁thỏm	-12.3713
▁khấn	-12.374
▁ối	-12.374
▁choạng	-12.374
▁khmer	-12.374
▁ngổn	-12.3741
▁nệm	-12.3741
▁tạnh	-12.3742
▁vồ	-12.3746
▁xạo	-12.3746
alo	-12.3755
ất	-12.3759
▁trặc	-12.3776
▁quẻ	-12.3776
▁áy	-12.3777
▁giêng	-12.3777
▁liu	-12.3781
▁khóm	-12.3783
▁bro	-12.3793
▁chồn	-12.3811
▁giễu	-12.3849
ordan	-12.385
am	-12.3878
nd	-12.3883
▁lặt	-12.3885
▁giê	-12.3895
▁graham	-12.3922
▁hungary	-12.3922
ak	-12.3927
▁wall	-12.3934
▁điệt	-12.3936
▁out	-12.3936
▁vali	-12.3953
ren	-12.3955
▁sạp	-12.3959
▁lõng	-12.3959
▁diên	-12.3961
sk	-12.3964
▁mc	-12.3976
ers	-12.3984
▁hoe	-12.3995
▁arsenal	-12.3996
▁bặt	-12.3996
▁trát	-12.3999
▁alan	-12.4
▁thố	-12.4023
▁star	-12.4033
▁cạm	-12.4034
▁lảng	-12.4037
▁map	-12.4047
▁vin	-12.4057
▁chat	-12.4065
▁xổ	-12.4069
▁hấu	-12.407
▁nấc	-12.407
▁nhưỡng	-12.4071
▁nép	-12.4076
▁thúng	-12.4078
▁phèn	-12.4097
▁bỡ	-12.4103
▁gộp	-12.4108
▁phờ	-12.4108
▁sải	-12.411
amin	-12.4116
ob	-12.4128
▁lồi	-12.4143
▁vaccine	-12.4146
▁nghẽn	-12.4146
▁thiều	-12.4147
▁bợ	-12.4152
▁park	-12.4155
▁her	-12.4155
▁ria	-12.4176
▁suôn	-12.4183
▁râm	-12.4183
▁bôn	-12.4198
▁dà	-12.4211
▁abraham	-12.4221
▁dặt	-12.4221
▁lecter	-12.4221
▁giằng	-12.4221
▁trớ	-12.4222
▁sọc	-12.4224
▁trụng	-12.4237
▁code	-12.4243
▁rỗ	-12.4256
▁nokia	-12.4259
▁patrick	-12.4259
▁texas	-12.4259
▁xỏ	-12.4259
one	-12.4277
ct	-12.4281
▁ừm	-12.4282
▁lằn	-12.4296
▁cạp	-12.4298
▁syria	-12.43
▁doạ	-12.4315
ten	-12.432
▁máng	-12.4334
▁vẹt	-12.4336
▁ùn	-12.434
▁rạn	-12.4346
▁sin	-12.4349
▁đản	-12.4354
▁phủi	-12.436
ă	-12.4364
▁hổn	-12.4373
▁phung	-12.438
▁mánh	-12.4385
▁ĩ	-12.4387
▁nu	-12.4401
▁cửi	-12.4409
▁mẩn	-12.4413
▁sủng	-12.4413
▁giăng	-12.4413
▁2010	-12.4421
▁von	-12.4433
▁óng	-12.4453
gen	-12.4475
▁plato	-12.449
▁nghếch	-12.449
▁búc	-12.4492
ustin	-12.4494
▁trọi	-12.4506
▁hoshi	-12.4508
▁anna	-12.4515
▁hoả	-12.4528
▁cừ	-12.4529
▁lỏi	-12.453
▁khoét	-12.453
▁nhối	-12.4531
▁thoi	-12.4533
▁mủ	-12.4567
▁afghanistan	-12.4569
▁fbi	-12.4569
ura	-12.4572
▁daniel	-12.4608
▁lún	-12.461
▁manga	-12.462
▁43	-12.4626
▁thịch	-12.4641
▁tắp	-12.4648
▁tuỳ	-12.4648
▁tét	-12.4653
▁khà	-12.4659
45	-12.4666
▁hon	-12.4673
à	-12.4674
▁uý	-12.4684
elensky	-12.4687
▁kremlin	-12.4687
▁netflix	-12.4687
▁marx	-12.4687
les	-12.4693
▁đung	-12.4697
▁win	-12.4704
▁trề	-12.4704
▁gồ	-12.4705
und	-12.4725
▁nghễ	-12.4727
sha	-12.4747
ven	-12.4755
gan	-12.4758
▁éo	-12.4767
▁phình	-12.4768
gr	-12.4778
ps	-12.478
▁sha	-12.4796
▁dùi	-12.4801
▁rachel	-12.4807
▁nhôm	-12.4813
hi	-12.4832
▁nick	-12.4842
▁olympic	-12.4848
▁golf	-12.4848
▁mầu	-12.4848
▁rìu	-12.4849
▁tuông	-12.4853
▁dr	-12.4881
per	-12.4882
▁chĩa	-12.4888
▁oải	-12.4888
▁phùn	-12.4889
▁lốt	-12.489
ell	-12.4905
ada	-12.4915
▁eric	-12.4919
ns	-12.4923
ach	-12.4925
▁einstein	-12.4929
▁muỗi	-12.4929
▁studio	-12.4929
▁biền	-12.4929
▁ngẩm	-12.497
▁premier	-12.497
▁phới	-12.497
▁ớn	-12.4978
▁vẩy	-12.5011
▁carbon	-12.5011
▁level	-12.5011
▁thược	-12.5011
▁hớp	-12.5011
▁mạp	-12.5012
rs	-12.5013
od	-12.502
ami	-12.5034
▁sỏ	-12.505
▁đìa	-12.5052
▁bụt	-12.5052
▁sỡ	-12.5053
uki	-12.5073
▁đoản	-12.5093
▁miết	-12.5093
▁scb	-12.5094
▁diêu	-12.5094
ino	-12.5101
▁dô	-12.5101
▁bye	-12.5108
▁nghé	-12.5128
▁loạng	-12.5129
▁khựng	-12.5134
▁lily	-12.5135
▁thỉu	-12.5135
▁logo	-12.5146
▁dìm	-12.515
▁car	-12.5166
▁thuấn	-12.5176
▁gô	-12.5188
ị	-12.5213
▁livestream	-12.5218
▁chận	-12.5218
▁hậm	-12.5218
▁block	-12.5218
▁sồi	-12.5219
▁bệch	-12.5219
▁view	-12.5224
▁dơi	-12.5226
▁51	-12.524
▁ky	-12.5259
▁spider	-12.526
▁ẩu	-12.526
ger	-12.5265
ô	-12.5273
mon	-12.5292
ang	-12.5293
ì	-12.5293
▁arthur	-12.5302
▁trẫm	-12.5302
▁thẫn	-12.5302
▁phắt	-12.5302
▁bập	-12.5303
▁xỉa	-12.5307
▁lạch	-12.533
▁per	-12.5331
▁veo	-12.5349
▁cúm	-12.5373
▁trố	-12.5378
▁nặn	-12.5386
▁aristotle	-12.5387
▁athens	-12.5387
▁ngoặc	-12.5387
▁huỷ	-12.5387
▁thiểm	-12.5388
▁phiện	-12.5389
▁vision	-12.5389
▁44	-12.539
ber	-12.5391
▁pê	-12.5398
▁lin	-12.5404
mer	-12.541
▁thun	-12.5413
▁trừu	-12.5417
▁chít	-12.5425
▁isaac	-12.543
▁chẻ	-12.543
▁piano	-12.543
▁đĩnh	-12.543
▁cạch	-12.543
▁ngạnh	-12.5432
▁woo	-12.547
▁inter	-12.5471
▁tè	-12.5472
▁quạnh	-12.5473
▁voice	-12.5474
▁nhũn	-12.5522
han	-12.5548
tin	-12.556
▁hinh	-12.5562
▁hám	-12.557
vo	-12.5579
▁khua	-12.5586
▁tành	-12.5586
▁times	-12.5601
▁etf	-12.5603
▁thót	-12.5603
▁rock	-12.5617
tic	-12.5638
up	-12.5645
▁quơ	-12.5647
ohnson	-12.5647
▁véo	-12.5656
▁mr	-12.5684
▁nghiễm	-12.569
▁obama	-12.569
▁united	-12.569
▁niết	-12.569
▁vồng	-12.5692
▁bảnh	-12.572
▁houthi	-12.5734
▁qatar	-12.5734
▁socrates	-12.5734
▁rén	-12.5737
▁laser	-12.5737
▁2012	-12.5738
▁air	-12.5739
▁nành	-12.5739
▁nạo	-12.5739
▁lâng	-12.5742
▁nháp	-12.5747
ity	-12.5747
qu	-12.5756
ẹt	-12.5757
▁mario	-12.5769
▁los	-12.5775
▁rích	-12.5779
▁super	-12.5779
▁room	-12.5786
▁báng	-12.579
▁đọa	-12.5794
▁big	-12.58
▁ngò	-12.5822
▁mướt	-12.5823
▁dẳng	-12.5823
▁nhòm	-12.5824
▁chài	-12.5833
▁mồng	-12.5846
▁lác	-12.586
▁kate	-12.5861
▁vậ	-12.5862
▁scotland	-12.5868
▁đéo	-12.5868
▁thoắt	-12.5868
▁nhuần	-12.5868
ét	-12.587
▁trồn	-12.5872
▁fl	-12.5896
▁chấu	-12.5912
▁rưới	-12.5912
▁fred	-12.5912
su	-12.593
▁rợ	-12.5934
oli	-12.5947
▁pep	-12.5951
▁maurice	-12.5957
▁rebecca	-12.5957
▁twitter	-12.5957
▁stanford	-12.5957
▁uông	-12.5958
uẩn	-12.5971
▁ali	-12.6001
▁trạc	-12.6002
hivago	-12.6003
▁2030	-12.6004
▁don	-12.6005
▁sir	-12.6007
▁wa	-12.6007
▁full	-12.6012
oo	-12.6014
▁tour	-12.6015
▁đát	-12.6036
▁cola	-12.6039
ã	-12.6041
▁stephen	-12.6048
▁dậm	-12.6048
▁franklin	-12.6048
▁phây	-12.6048
▁honda	-12.6049
▁eva	-12.607
▁news	-12.6077
mp	-12.6091
▁karaoke	-12.6094
▁nũng	-12.6094
▁vựng	-12.6094
▁nhẫm	-12.6094
▁hùa	-12.6096
lu	-12.6097
▁2005	-12.6099
▁hộc	-12.6099
▁vát	-12.6102
▁thổn	-12.6122
fe	-12.6123
▁thoang	-12.6145
▁teo	-12.6145
▁khuy	-12.6147
dy	-12.6152
▁ron	-12.6163
▁loi	-12.6172
gu	-12.6177
▁daryl	-12.6186
▁quẩy	-12.6186
▁boston	-12.6186
▁dna	-12.6187
▁rụi	-12.6187
▁lán	-12.6192
▁spa	-12.621
▁bella	-12.624
▁lẻo	-12.6247
▁toang	-12.6249
mb	-12.6275
▁lừ	-12.6276
▁mĩ	-12.6277
▁yemen	-12.6279
▁click	-12.6279
▁deep	-12.6279
▁xối	-12.6279
▁phông	-12.6287
▁nem	-12.6305
▁channel	-12.6325
▁rĩ	-12.6325
▁khoắn	-12.6325
▁chằng	-12.6326
▁bệt	-12.6331
▁phàng	-12.6334
▁nhác	-12.6338
▁bềnh	-12.6341
▁chờn	-12.6361
lan	-12.6366
▁vằn	-12.6371
▁nỏ	-12.6372
▁lắk	-12.6373
▁mọng	-12.6375
▁ry	-12.6384
▁hòi	-12.6394
10	-12.6395
▁hạp	-12.6402
▁hển	-12.6412
acob	-12.6413
▁vượn	-12.6418
▁uể	-12.642
cor	-12.6422
▁xúi	-12.6424
▁thửa	-12.6456
enny	-12.6457
▁startup	-12.6467
▁nhừ	-12.6467
ẹ	-12.6474
▁muống	-12.6475
▁time	-12.6478
▁tuế	-12.6483
▁we	-12.6497
▁albert	-12.6514
▁poppy	-12.6514
▁ipad	-12.6514
▁kham	-12.6514
▁quẳng	-12.6515
▁lìm	-12.6524
▁hắng	-12.6539
▁war	-12.6543
ian	-12.6543
▁noi	-12.6561
▁trũng	-12.6562
▁chùy	-12.6562
▁cật	-12.6562
▁trend	-12.6563
▁tuồng	-12.6563
▁kay	-12.6568
▁khít	-12.6573
▁hanh	-12.6575
dd	-12.6578
▁ar	-12.6588
▁bịp	-12.6593
du	-12.6593
tor	-12.6599
ắ	-12.6608
▁nhặn	-12.6609
▁xẹp	-12.661
▁sảo	-12.6612
che	-12.6612
▁2011	-12.6614
way	-12.6639
▁sê	-12.6654
▁rốn	-12.6658
▁oang	-12.6669
24	-12.6694
▁trồ	-12.6697
▁trứ	-12.6705
▁chạc	-12.6707
▁belarus	-12.6707
▁41	-12.6716
aka	-12.6719
đ	-12.6723
ey	-12.674
▁marcus	-12.6756
▁soạt	-12.6757
▁uric	-12.6759
▁lòa	-12.6769
▁rome	-12.6795
▁sà	-12.6799
▁nẻ	-12.6805
▁bấu	-12.6805
▁hiềm	-12.6805
▁sta	-12.6821
▁west	-12.6827
▁ó	-12.6829
em	-12.6833
▁meta	-12.6834
ide	-12.6842
rp	-12.6847
▁xo	-12.6848
▁kissinger	-12.6854
▁platon	-12.6854
▁mọt	-12.6855
▁lisa	-12.6855
▁lụng	-12.6855
▁sc	-12.6857
▁mím	-12.6858
▁lững	-12.687
▁lóa	-12.6876
▁ed	-12.6881
rin	-12.6893
▁lươn	-12.6903
▁khuyển	-12.6904
▁tắn	-12.6904
▁lợp	-12.6904
▁mền	-12.6907
▁bâng	-12.6907
▁tràm	-12.691
ff	-12.694
ld	-12.6951
▁òa	-12.6954
by	-12.6956
▁nina	-12.6957
▁thỏi	-12.697
ara	-12.6976
▁130	-12.6997
▁ashley	-12.7004
▁liếng	-12.7004
▁vênh	-12.7005
▁amy	-12.701
▁kềm	-12.7012
ant	-12.7018
ennifer	-12.7054
▁nhương	-12.7054
▁cầy	-12.7054
▁kỉnh	-12.7054
▁thệ	-12.706
ip	-12.7062
▁ngót	-12.7064
ros	-12.7076
▁lum	-12.7077
▁oi	-12.7103
▁nghè	-12.7103
▁rần	-12.7104
▁mửa	-12.7104
▁náu	-12.7106
▁trối	-12.7107
▁gôn	-12.711
▁350	-12.7149
▁ngoa	-12.7152
▁nòi	-12.7156
ona	-12.7162
▁wi	-12.7186
▁kon	-12.7198
▁thỉ	-12.7205
▁islam	-12.7206
▁rây	-12.7206
▁gáo	-12.7206
▁dụm	-12.7206
▁gym	-12.7206
▁phèo	-12.7207
ó	-12.7208
▁vảy	-12.7222
ow	-12.7223
ori	-12.7234
11	-12.7238
▁meo	-12.7252
▁mascova	-12.7257
▁ghẹo	-12.7258
▁copy	-12.7258
▁cang	-12.7259
▁trĩu	-12.7259
ick	-12.7264
▁anne	-12.7267
▁os	-12.7272
▁rôn	-12.7283
ect	-12.7285
▁quýnh	-12.7291
▁què	-12.7294
▁mori	-12.7297
▁lủng	-12.7309
▁núng	-12.7309
▁tẹo	-12.7309
▁ultra	-12.7309
▁séc	-12.7309
▁angeles	-12.7309
▁vạm	-12.7313
▁sum	-12.7324
▁rò	-12.7357
▁francisco	-12.7361
▁mấp	-12.7361
▁yểu	-12.7363
ap	-12.7385
▁tàm	-12.7385
▁bob	-12.7403
▁nghía	-12.7413
▁viettel	-12.7413
▁xấp	-12.7413
▁khuân	-12.7415
ose	-12.7416
▁mỏm	-12.7432
15	-12.7432
ac	-12.7443
ava	-12.7443
▁nano	-12.745
▁electron	-12.7465
▁ghì	-12.7465
▁kiết	-12.7465
▁đét	-12.7465
ent	-12.7473
ran	-12.7504
▁gừ	-12.7516
▁chuốc	-12.7518
▁oscar	-12.7518
▁ted	-12.7518
▁vừng	-12.7518
ita	-12.7524
ph	-12.7529
▁cốm	-12.7542
▁pô	-12.7548
▁trịch	-12.7569
▁hollywood	-12.7571
▁rượi	-12.7571
▁titanic	-12.7571
▁hói	-12.7571
▁múi	-12.7572
illa	-12.7577
▁bết	-12.7582
▁sớ	-12.7583
▁mac	-12.7599
ộ	-12.7605
▁cholesterol	-12.7624
▁moskva	-12.7624
▁rón	-12.7624
▁ellen	-12.7624
▁macaron	-12.7624
▁chắt	-12.7624
▁xới	-12.7624
▁chuôi	-12.7624
▁yểm	-12.7625
▁gông	-12.7627
▁rinh	-12.7628
▁nọc	-12.7642
▁nin	-12.7642
ana	-12.7671
sen	-12.7672
▁mả	-12.7674
▁ngấu	-12.7677
▁playtime	-12.7677
▁réo	-12.7678
▁chòm	-12.7678
▁ói	-12.768
▁húc	-12.7681
▁dĩnh	-12.7687
res	-12.7722
nes	-12.7726
▁pass	-12.773
▁alpha	-12.7731
▁đùm	-12.7732
▁cộc	-12.7733
nia	-12.7735
ến	-12.7736
è	-12.7775
▁instagram	-12.7785
▁phập	-12.7786
▁quầng	-12.7798
▁chóp	-12.781
▁uẩn	-12.7822
ôn	-12.7831
▁pham	-12.7837
▁chuốt	-12.784
▁crimea	-12.784
▁hỷ	-12.784
▁phũ	-12.784
▁bot	-12.7843
▁thiển	-12.7843
▁goa	-12.7849
nda	-12.7854
tra	-12.7858
▁dụi	-12.7868
iro	-12.7877
▁spikerman	-12.7894
▁vlog	-12.7894
▁tennis	-12.7894
▁nevê	-12.7895
▁54	-12.7895
▁cabin	-12.7896
▁tóe	-12.7897
▁thuý	-12.7903
▁tày	-12.7905
▁hống	-12.7908
▁ex	-12.7947
▁starbucks	-12.7949
▁florida	-12.7949
▁lườm	-12.7949
▁hửng	-12.795
▁képin	-12.7957
▁thòng	-12.7958
▁manchester	-12.8004
▁thẫm	-12.8004
▁free	-12.8004
▁hoằng	-12.8005
▁rudy	-12.8005
▁latin	-12.8007
▁robin	-12.8008
▁202	-12.8008
ung	-12.8014
ake	-12.8019
ett	-12.8023
▁pen	-12.8032
▁au	-12.8035
lia	-12.8038
onathan	-12.806
▁núm	-12.806
▁tươm	-12.806
▁chội	-12.806
▁mễ	-12.8067
▁chiêng	-12.8072
▁xoe	-12.8074
▁port	-12.808
ment	-12.8091
▁lổ	-12.8114
▁first	-12.8116
▁stream	-12.812
▁emma	-12.8137
▁tơn	-12.817
▁nghê	-12.8171
▁miện	-12.8171
▁riêu	-12.8172
▁fe	-12.8182
our	-12.8182
tu	-12.8187
▁darvê	-12.8228
▁timothy	-12.8228
▁sh	-12.8229
▁bặm	-12.8229
▁dark	-12.823
▁good	-12.8237
▁chông	-12.8237
ế	-12.8264
▁khè	-12.8267
ds	-12.8271
ban	-12.828
▁barcelona	-12.8285
▁death	-12.8285
▁lủi	-12.8285
▁emily	-12.8285
▁drama	-12.8285
▁shopee	-12.8285
esus	-12.8286
ess	-12.8286
▁lịm	-12.8286
▁bấp	-12.8287
▁sp	-12.8293
▁búi	-12.8293
▁one	-12.83
▁nhẹt	-12.8305
▁hởi	-12.8311
▁rem	-12.8327
▁chạnh	-12.8343
▁movie	-12.835
bb	-12.8357
▁phúng	-12.836
▁dề	-12.8361
dan	-12.8362
▁thủi	-12.8371
ft	-12.8379
van	-12.8386
▁rose	-12.8387
ăm	-12.8397
ên	-12.8399
▁liesel	-12.84
▁battle	-12.84
▁ắng	-12.84
au	-12.84
▁nịch	-12.84
▁nấng	-12.8401
▁khỉnh	-12.8402
▁work	-12.8409
▁tỉm	-12.8425
▁thủa	-12.8432
ras	-12.8453
▁alibaba	-12.8458
▁nevile	-12.8458
▁macron	-12.8458
▁parker	-12.8458
▁lauren	-12.8458
▁chàm	-12.8469
ish	-12.8486
▁tủm	-12.8494
▁keng	-12.8497
▁khơ	-12.8514
▁fanpage	-12.8516
▁ubnd	-12.8516
▁trầy	-12.8516
▁chột	-12.8516
▁mõm	-12.8517
▁úa	-12.8518
▁cún	-12.8525
▁ngải	-12.8526
kin	-12.853
cy	-12.8533
▁ge	-12.8574
▁darwin	-12.8574
▁ip	-12.8582
▁andy	-12.8584
▁nhờn	-12.859
▁ngấy	-12.8633
ama	-12.8637
▁she	-12.8638
▁mói	-12.864
▁nhố	-12.8644
line	-12.8646
▁xém	-12.8654
ợ	-12.8682
▁chơ	-12.8685
▁kai	-12.8686
▁ac	-12.8687
▁vắn	-12.8691
▁ốp	-12.8692
▁solomon	-12.8692
▁đẽo	-12.8698
▁green	-12.8701
▁lênh	-12.8702
osh	-12.8708
▁53	-12.8715
ble	-12.8722
▁toản	-12.873
min	-12.8732
▁bri	-12.8741
▁thẩn	-12.8752
▁giãy	-12.8755
▁úi	-12.8756
▁thúi	-12.8761
▁lọng	-12.8763
▁gọng	-12.8777
cha	-12.8785
ển	-12.8798
elenski	-12.8812
▁tróc	-12.8812
▁sùi	-12.8813
▁vót	-12.8814
▁thiêm	-12.8814
▁khuây	-12.8815
don	-12.8852
▁cat	-12.8853
▁val	-12.8857
ề	-12.8858
▁silicon	-12.8872
▁xén	-12.888
sco	-12.8887
▁eth	-12.8888
ima	-12.8889
▁rờ	-12.8925
▁gở	-12.8931
▁chỏ	-12.8931
▁nạc	-12.8932
▁atlantis	-12.8933
▁rịa	-12.8933
▁salim	-12.8933
▁trũi	-12.8933
▁xâu	-12.8933
▁rặng	-12.8933
ackson	-12.8933
que	-12.8934
▁tã	-12.894
í	-12.8954
oy	-12.897
ens	-12.8971
ep	-12.8972
23	-12.8977
ek	-12.8983
▁pol	-12.8993
▁giắt	-12.8994
▁răm	-12.8994
▁misao	-12.8994
▁ríu	-12.8994
▁sọt	-12.8998
▁ỏ	-12.8999
▁rúm	-12.9001
▁american	-12.9002
000	-12.9006
▁đôla	-12.9007
est	-12.9012
▁ari	-12.9022
rd	-12.9033
▁sác	-12.9055
▁đượm	-12.9055
▁iq	-12.9055
▁ngoắt	-12.9055
▁phạn	-12.9055
▁nhoài	-12.9055
▁thốc	-12.9056
ờ	-12.907
▁phích	-12.9077
rb	-12.9098
ate	-12.9105
▁thía	-12.9105
ặm	-12.9115
▁tiệu	-12.9117
▁đớp	-12.9117
▁nải	-12.9117
▁vạc	-12.9118
berg	-12.914
bs	-12.915
▁love	-12.916
com	-12.917
▁rả	-12.9175
ney	-12.9178
▁android	-12.9179
▁ngáo	-12.9179
▁windows	-12.9179
▁smartphone	-12.9179
▁watson	-12.9179
▁dướng	-12.9179
▁rết	-12.9179
▁quặng	-12.9179
▁thớ	-12.9182
▁yuri	-12.9183
age	-12.9186
▁chảnh	-12.9186
ken	-12.9188
ria	-12.919
ime	-12.9192
▁chớm	-12.92
ulia	-12.9203
ết	-12.9203
yo	-12.9216
▁nong	-12.9228
▁gas	-12.9229
▁ami	-12.9232
ill	-12.9241
▁khuỷu	-12.9241
▁quẹo	-12.9241
▁potter	-12.9241
▁chửng	-12.9242
ist	-12.9256
▁cr	-12.9266
ram	-12.9276
oc	-12.9287
men	-12.9289
▁lú	-12.929
▁helen	-12.93
▁ivan	-12.9302
ournal	-12.9304
▁idol	-12.9304
▁nậm	-12.9304
ini	-12.9306
▁sorat	-12.9307
▁sắng	-12.9308
king	-12.931
▁cùi	-12.9311
ể	-12.9317
▁dạp	-12.9323
▁cỗi	-12.933
ĩu	-12.9331
▁ụ	-12.9336
▁ké	-12.9355
▁lũi	-12.9364
▁kun	-12.9364
▁hormone	-12.9367
▁cuội	-12.9368
▁chãi	-12.9368
▁nhòi	-12.9369
▁húp	-12.937
▁laura	-12.9374
▁ghém	-12.9395
ight	-12.9398
▁nệ	-12.9401
▁bốp	-12.9406
▁clinton	-12.9431
▁margaret	-12.9431
▁ních	-12.9431
▁content	-12.9431
▁street	-12.9431
▁xiêu	-12.9431
▁vov	-12.9431
▁nhón	-12.9433
lt	-12.9439
▁es	-12.945
▁pon	-12.9456
sta	-12.9462
▁miu	-12.947
▁hans	-12.9473
▁nõn	-12.9495
▁vấy	-12.9495
▁strange	-12.9495
▁thuột	-12.9497
▁cồng	-12.9503
immy	-12.9505
▁mor	-12.952
ệ	-12.9538
▁trợt	-12.9542
▁mão	-12.9544
▁xoá	-12.9556
▁hawaii	-12.956
▁siberia	-12.956
▁quắt	-12.956
▁rook	-12.956
▁pop	-12.959
▁fm	-12.96
ice	-12.9604
ee	-12.9621
▁ngái	-12.9625
▁tencent	-12.9625
▁bonnie	-12.9625
▁liệm	-12.9625
▁mích	-12.9625
har	-12.9636
ham	-12.9642
▁110	-12.9652
lf	-12.9666
▁fo	-12.9678
fi	-12.9679
▁champions	-12.969
▁giầy	-12.969
▁hục	-12.969
▁gơ	-12.9691
▁phiệt	-12.9692
▁kẽm	-12.9699
dra	-12.9702
▁rosa	-12.9702
▁kong	-12.971
cho	-12.9715
▁yo	-12.972
ầ	-12.9741
▁đẩu	-12.9756
▁ottoman	-12.9756
▁sính	-12.9756
▁nhúm	-12.9757
▁suông	-12.9758
▁mõ	-12.9759
we	-12.9764
▁gar	-12.9768
▁let	-12.9774
▁hp	-12.9778
and	-12.9789
era	-12.9793
▁grand	-12.9795
▁gra	-12.9802
▁ak	-12.9803
ser	-12.9819
▁georgia	-12.9822
▁xốc	-12.9822
▁walt	-12.983
ichi	-12.9837
55	-12.9837
▁seo	-12.9842
▁ver	-12.9846
▁trằn	-12.9847
▁bớ	-12.9851
▁lụ	-12.9879
▁francis	-12.9889
▁index	-12.9889
▁leonardo	-12.9889
▁ngòm	-12.9891
▁đảnh	-12.9891
▁fit	-12.9893
▁2003	-12.9894
▁rúng	-12.9896
▁gri	-12.9897
▁chea	-12.991
▁giảo	-12.9911
12	-12.9911
▁list	-12.9917
▁thau	-12.9921
▁bus	-12.9927
▁mail	-12.9929
▁xị	-12.9932
▁xoan	-12.9939
▁nhốn	-12.994
nny	-12.994
ou	-12.9941
▁sá	-12.9949
▁nhọ	-12.9949
▁business	-12.9956
▁hẫng	-12.9956
▁mống	-12.9956
▁vữa	-12.9956
▁wilson	-12.9956
▁mếu	-12.9956
ius	-12.9956
▁rúc	-12.9959
▁austin	-12.996
ulian	-12.9963
ric	-12.9963
ora	-12.9964
ik	-12.9979
▁chap	-12.9982
ếu	-12.9986
▁pan	-12.9995
ậ	-13.0009
ae	-13.002
oom	-13.0022
▁nhoẻn	-13.0023
▁gột	-13.0023
▁sậm	-13.0024
ab	-13.0034
▁aka	-13.0052
▁sứt	-13.0053
ện	-13.0061
▁chác	-13.0067
ạ	-13.0068
sia	-13.007
rv	-13.0074
▁xòa	-13.0092
ếp	-13.0094
▁chiểu	-13.0095
stan	-13.0101
▁start	-13.0143
ies	-13.0145
▁rụ	-13.0152
▁us	-13.0152
ex	-13.0154
▁audrey	-13.016
▁sylvie	-13.016
▁rupi	-13.016
▁mẫm	-13.016
▁elsa	-13.016
▁howard	-13.016
▁combo	-13.016
▁chửa	-13.016
awa	-13.018
▁nhão	-13.0182
▁youtuber	-13.0183
mura	-13.0188
▁nọt	-13.0192
ting	-13.0193
▁miss	-13.0197
ohan	-13.0214
▁đĩ	-13.0228
▁vỏn	-13.0228
▁insulin	-13.0229
▁sủi	-13.0229
▁what	-13.0229
▁munich	-13.0229
field	-13.0229
▁milan	-13.023
▁2004	-13.0233
▁oánh	-13.024
ade	-13.0241
▁ngợ	-13.0242
con	-13.0259
▁vest	-13.0287
▁kiển	-13.0298
▁khẩy	-13.0298
▁nhầy	-13.0298
▁phịch	-13.0299
▁lợm	-13.0299
▁chôm	-13.0299
▁rùi	-13.0299
▁diếm	-13.03
▁nhàu	-13.0306
▁hử	-13.0311
▁ngo	-13.0314
▁baby	-13.0319
ris	-13.0332
▁khì	-13.0336
▁nhãi	-13.0348
▁carl	-13.0353
ite	-13.0355
▁tum	-13.0362
▁note	-13.0363
yn	-13.0366
eb	-13.0366
ax	-13.0367
▁xiaomi	-13.0368
▁truồng	-13.0368
▁ngắc	-13.0368
▁dầy	-13.0368
▁rục	-13.0369
▁thới	-13.0371
▁stalin	-13.0373
▁tịt	-13.0376
▁yuta	-13.0383
▁games	-13.0385
▁thor	-13.0389
▁mơn	-13.0413
ix	-13.0423
ks	-13.0425
▁sue	-13.0428
▁chịt	-13.0433
▁axit	-13.0439
▁club	-13.0439
▁mahito	-13.0439
▁quắp	-13.0439
▁motorola	-13.0439
▁liềm	-13.0439
▁sần	-13.044
▁id	-13.0447
▁khò	-13.0448
▁bỡn	-13.0449
ple	-13.0454
▁ger	-13.0458
▁pc	-13.0475
một	-13.0476
▁đom	-13.0483
tion	-13.0491
ẻ	-13.05
▁kiền	-13.0509
▁bấn	-13.051
▁dubai	-13.051
▁giựt	-13.051
▁binance	-13.051
▁quẫn	-13.051
▁season	-13.051
▁liệng	-13.051
▁sình	-13.0511
▁hới	-13.0512
▁trệt	-13.0513
▁thiến	-13.0515
▁dằng	-13.0516
▁lòe	-13.052
▁cd	-13.0526
uk	-13.0531
▁cụi	-13.0542
▁nhớt	-13.0542
▁scan	-13.0567
▁airlines	-13.0581
▁fifa	-13.0581
▁gâu	-13.0581
ivka	-13.0581
▁giun	-13.0582
▁vờn	-13.0585
▁sapa	-13.0585
uko	-13.0592
ring	-13.0594
▁nghịu	-13.0596
ola	-13.0622
▁thít	-13.0623
▁mư	-13.0643
tro	-13.0649
▁lẩy	-13.0653
▁giỗ	-13.0653
▁gogh	-13.0653
▁ap	-13.0653
▁kịt	-13.0655
▁ab	-13.0677
asper	-13.0678
▁lơi	-13.0683
▁đâ	-13.0691
▁dãn	-13.0692
▁khảnh	-13.0708
▁sub	-13.072
▁hit	-13.0722
▁vỉ	-13.0724
▁homestay	-13.0725
▁nixon	-13.0725
▁nứa	-13.0725
▁nùng	-13.0726
▁loát	-13.0726
▁phét	-13.0727
▁mm	-13.0728
▁haley	-13.0729
▁vánh	-13.0733
▁ryan	-13.0736
▁lể	-13.074
hen	-13.0759
▁carol	-13.0763
▁bla	-13.0786
▁nhò	-13.0796
▁brown	-13.0798
▁ethereum	-13.0798
▁mumbai	-13.0798
▁toyota	-13.0798
▁seoul	-13.0798
▁pờ	-13.0799
▁gaming	-13.0799
ackie	-13.0799
▁cross	-13.0801
og	-13.0802
▁den	-13.0803
sch	-13.0813
▁visa	-13.0817
▁cia	-13.0819
▁sờn	-13.0834
ano	-13.0848
▁hớ	-13.0864
rat	-13.0869
tr	-13.0872
▁happy	-13.0872
▁kyoto	-13.0872
▁gameplay	-13.0872
▁hugo	-13.0872
▁sậy	-13.0873
▁sky	-13.0895
yan	-13.0906
▁chau	-13.0911
▁anti	-13.0927
▁qúy	-13.0946
▁michigan	-13.0946
▁honkai	-13.0946
lli	-13.0946
▁build	-13.0946
▁tót	-13.0947
▁sing	-13.095
▁sco	-13.0954
▁sea	-13.0956
▁tva	-13.0962
54	-13.0963
ăn	-13.0967
▁mel	-13.098
▁art	-13.0987
ẳng	-13.1013
dia	-13.1013
▁totto	-13.1021
▁gẫu	-13.1021
▁cộp	-13.1023
▁phang	-13.1028
pt	-13.1029
▁rob	-13.1039
▁rod	-13.1043
▁toạc	-13.1045
▁homo	-13.1056
▁toi	-13.1065
if	-13.1072
ani	-13.1094
▁trờ	-13.1094
▁dả	-13.1095
▁guitar	-13.1096
▁morgan	-13.1096
▁dim	-13.1096
▁đẫn	-13.1096
▁hão	-13.1096
▁dúi	-13.1097
▁sạm	-13.1097
▁đoái	-13.1097
▁sán	-13.11
ei	-13.1113
▁demo	-13.1114
ason	-13.1131
▁sên	-13.1132
▁phil	-13.1133
▁ship	-13.1148
▁net	-13.1151
▁bre	-13.1171
▁mướp	-13.1172
▁thững	-13.1172
▁huýt	-13.1172
▁nuông	-13.1172
▁eren	-13.1174
▁díu	-13.1174
▁brian	-13.1179
▁dragon	-13.118
uku	-13.1196
▁í	-13.1209
▁bur	-13.1221
ân	-13.1222
▁if	-13.1228
▁fc	-13.1233
ato	-13.1233
moto	-13.1235
▁pat	-13.1237
▁gạ	-13.124
▁bẽ	-13.1242
▁sú	-13.1246
▁bửu	-13.1248
▁massage	-13.1248
▁mcdonald	-13.1248
▁xiềng	-13.1248
▁điếng	-13.1248
▁xiếc	-13.1248
▁who	-13.1248
▁nịu	-13.1248
▁ibm	-13.1249
▁queo	-13.1252
▁loét	-13.1257
▁nhăng	-13.1258
ập	-13.1283
ủ	-13.129
ella	-13.1299
35	-13.1309
▁kin	-13.1314
▁nicholas	-13.1325
▁nakahara	-13.1325
▁hindu	-13.1325
▁store	-13.1325
▁dẹt	-13.1325
▁roma	-13.1326
▁đênh	-13.1327
▁grant	-13.1328
▁xổm	-13.1328
▁nhem	-13.1329
êu	-13.1344
nis	-13.1347
let	-13.1355
▁ngốn	-13.1357
25	-13.1363
▁las	-13.137
pu	-13.1386
eno	-13.1387
▁nhãng	-13.1391
ari	-13.1395
▁estonia	-13.1402
▁rưởi	-13.1402
▁diệc	-13.1402
▁huê	-13.1405
▁ngoai	-13.1405
▁trớn	-13.1414
▁rũa	-13.1421
tha	-13.1429
ub	-13.1439
▁maki	-13.1443
vin	-13.1464
rit	-13.1466
▁rap	-13.1475
▁guốc	-13.148
▁reagan	-13.148
▁rintaro	-13.1481
▁virginia	-13.1481
▁lucas	-13.1481
▁kar	-13.1482
▁megan	-13.1484
▁karen	-13.1484
▁rơ	-13.149
▁cồ	-13.1513
ừ	-13.1525
ust	-13.1528
▁phốc	-13.1533
▁khui	-13.1538
▁data	-13.1545
▁mer	-13.1548
▁marathon	-13.1559
▁sũng	-13.1559
▁ốt	-13.1559
▁chường	-13.1559
▁ruồng	-13.1559
▁hâu	-13.1559
▁roger	-13.156
▁mod	-13.1567
▁nộm	-13.1583
hu	-13.1608
▁oh	-13.1613
▁mề	-13.1624
ực	-13.163
ự	-13.1632
▁bụ	-13.1633
ida	-13.1636
▁giũ	-13.1637
▁moskova	-13.1639
▁hacker	-13.1639
▁nhiễn	-13.1639
▁quại	-13.1644
▁xơi	-13.1646
inh	-13.1652
▁phui	-13.1658
▁mui	-13.1662
▁gio	-13.167
▁by	-13.1675
ford	-13.1684
▁chếch	-13.169
▁gon	-13.1697
ec	-13.1702
ller	-13.171
▁dũ	-13.1716
▁sticker	-13.1719
▁update	-13.1719
▁ngậy	-13.1719
▁crush	-13.1719
▁qr	-13.1719
▁smart	-13.1725
▁xẻng	-13.1725
▁2002	-13.1726
▁đải	-13.1733
ea	-13.1734
▁xán	-13.1734
eo	-13.174
▁híp	-13.174
▁sale	-13.1755
ire	-13.1765
▁đọ	-13.1768
ira	-13.1781
14	-13.1798
▁cooper	-13.1799
▁ngấn	-13.1799
▁nẩy	-13.1799
▁douglas	-13.1799
▁kitô	-13.1799
▁xoăn	-13.1801
▁nghiêu	-13.1802
▁grab	-13.1802
▁micro	-13.1803
▁nhím	-13.1818
ago	-13.1819
▁back	-13.1821
erry	-13.1828
ree	-13.1834
▁ngõa	-13.1835
ây	-13.184
▁beo	-13.1843
sion	-13.187
▁il	-13.1871
lis	-13.1872
▁sl	-13.1876
▁ngử	-13.1877
▁nancy	-13.1881
▁thóp	-13.1881
▁lịa	-13.1882
▁khuâng	-13.1882
▁thuồng	-13.1884
▁thó	-13.1888
▁húi	-13.189
▁ii	-13.1892
▁kheo	-13.1897
tal	-13.191
▁nghinh	-13.191
▁angela	-13.1912
ding	-13.1913
mas	-13.1918
ền	-13.1942
▁brad	-13.1952
ắc	-13.1954
my	-13.1955
41	-13.1959
▁nấn	-13.1961
▁digital	-13.1963
▁muhammad	-13.1963
▁képford	-13.1963
▁bẹo	-13.1963
▁quệt	-13.1965
▁nasa	-13.1965
▁nhằng	-13.1967
▁sột	-13.1968
▁lói	-13.1971
▁lơn	-13.1976
▁hei	-13.1987
br	-13.2005
ica	-13.2014
ls	-13.2018
▁des	-13.2018
▁aki	-13.2021
▁how	-13.2031
▁hong	-13.2037
ũ	-13.2042
ohnny	-13.2045
▁randy	-13.2045
▁amanda	-13.2045
▁plus	-13.2045
▁nhại	-13.2046
▁hỉnh	-13.2046
▁lạn	-13.2052
ture	-13.2058
▁plan	-13.2061
▁ưỡn	-13.2066
hia	-13.2089
ông	-13.209
rl	-13.2091
▁sứa	-13.2096
▁ngỗ	-13.2125
▁edmund	-13.2128
▁furina	-13.2128
▁bobby	-13.2129
▁kelly	-13.2129
▁marius	-13.2129
▁order	-13.2129
▁kềnh	-13.2131
▁yuki	-13.2148
out	-13.2153
▁book	-13.2168
gel	-13.2171
▁gara	-13.218
cher	-13.2184
▁hydro	-13.2213
▁matthew	-13.2213
▁đận	-13.2213
▁rules	-13.2213
▁brand	-13.2214
▁lảnh	-13.2214
▁nơm	-13.2218
▁lego	-13.2221
42	-13.2222
▁abc	-13.2229
34	-13.2229
▁chủy	-13.2248
▁rôm	-13.2263
▁mal	-13.2264
▁mú	-13.2293
▁halloween	-13.2297
▁quở	-13.2297
▁molly	-13.2298
▁gút	-13.2298
▁nờ	-13.2298
▁uế	-13.2298
▁intel	-13.2298
▁spin	-13.2303
▁én	-13.2306
cl	-13.2318
▁bịu	-13.2325
▁típ	-13.2326
ú	-13.2343
sca	-13.2354
bin	-13.2354
tis	-13.2359
▁dev	-13.236
▁140	-13.237
▁bển	-13.2375
ẽ	-13.2376
▁bằm	-13.2383
▁mahmoud	-13.2383
▁mầy	-13.2383
▁xờ	-13.2383
▁dead	-13.2383
▁open	-13.2384
▁đác	-13.2384
▁kít	-13.2386
▁santa	-13.2387
▁đơm	-13.2388
▁viển	-13.2388
ism	-13.2391
▁cứt	-13.2395
▁vãnh	-13.2395
▁banner	-13.2396
ms	-13.2402
▁call	-13.2404
▁xạc	-13.2404
▁trô	-13.2414
rk	-13.2426
ud	-13.2426
ive	-13.2443
óc	-13.2444
dor	-13.2457
▁lị	-13.2466
▁ghề	-13.2469
▁barbara	-13.2469
▁ruổi	-13.2469
▁montana	-13.2469
▁bruno	-13.2469
▁lất	-13.247
▁rạo	-13.247
▁page	-13.247
▁newton	-13.247
ial	-13.2472
▁đay	-13.2472
▁kara	-13.2473
port	-13.2476
utsu	-13.248
▁bêu	-13.2489
sin	-13.249
uri	-13.2497
13	-13.2503
▁tút	-13.2509
▁mụi	-13.2509
05	-13.252
▁thịa	-13.2524
▁cưu	-13.2529
▁sho	-13.2533
▁khoải	-13.2556
▁sấn	-13.2556
▁stanley	-13.2556
▁freddy	-13.2556
▁niệu	-13.2556
▁novo	-13.2557
▁hamburger	-13.2557
▁ghiền	-13.2558
▁beta	-13.2559
ễ	-13.2561
▁gờm	-13.2561
▁quằn	-13.2565
▁hack	-13.2565
▁cap	-13.2569
▁cru	-13.257
ase	-13.2589
▁pre	-13.2594
▁far	-13.2602
▁geto	-13.2602
▁tệp	-13.261
ling	-13.2615
▁phóc	-13.262
▁pri	-13.2636
44	-13.2637
▁margin	-13.2644
▁mercedes	-13.2644
▁nốc	-13.2644
▁oliver	-13.2644
▁pokemon	-13.2644
▁power	-13.2644
▁rớm	-13.2644
▁vegas	-13.2644
▁liễn	-13.2644
▁hịch	-13.2644
▁đùn	-13.2646
▁menu	-13.2658
▁bank	-13.2662
▁vani	-13.2663
uchi	-13.267
▁giậ	-13.2677
tri	-13.2681
▁dạc	-13.2686
▁pr	-13.2692
▁mun	-13.2693
wood	-13.2701
▁sụn	-13.2712
yama	-13.2715
nne	-13.2716
▁carnegie	-13.2732
▁miguel	-13.2732
▁ufo	-13.2732
▁carter	-13.2732
▁gí	-13.2733
▁cra	-13.2733
▁giũa	-13.2734
▁tonia	-13.2736
▁guys	-13.2737
▁sì	-13.2739
gb	-13.2744
▁chề	-13.2747
▁naka	-13.2749
ium	-13.2752
rian	-13.2776
ova	-13.2781
▁well	-13.2788
▁pla	-13.2796
▁nap	-13.2799
▁sửu	-13.28
▁lôn	-13.2804
ọ	-13.2809
die	-13.2811
▁sù	-13.2819
▁boeing	-13.2821
▁gordon	-13.2821
▁mindset	-13.2821
▁mẩy	-13.2821
▁phừng	-13.2821
▁resort	-13.2821
▁dỉ	-13.2821
▁xở	-13.2822
▁rợp	-13.2823
43	-13.2841
art	-13.2845
▁bót	-13.2856
▁khú	-13.2864
▁solo	-13.287
ọc	-13.2878
▁trụy	-13.2881
▁bel	-13.2888
iko	-13.2895
▁mòi	-13.2899
▁quánh	-13.2901
▁thé	-13.2911
▁deborah	-13.2911
▁nathan	-13.2911
essica	-13.2912
▁vỹ	-13.2912
▁faker	-13.2912
▁nhiếc	-13.2913
▁chùng	-13.2913
▁còm	-13.2924
▁iu	-13.293
▁christ	-13.2938
las	-13.295
tel	-13.2952
▁para	-13.2952
ester	-13.2954
lly	-13.2956
▁ngố	-13.2963
ểu	-13.2974
ste	-13.2974
êm	-13.2975
ỡ	-13.2993
▁1000	-13.2996
▁ré	-13.2996
ok	-13.2997
▁pleiku	-13.3002
▁xõa	-13.3002
▁cassie	-13.3002
▁takaba	-13.3002
▁nớp	-13.3003
▁bush	-13.3004
hai	-13.3006
▁dình	-13.3007
▁cộm	-13.3008
▁gạn	-13.3009
▁toét	-13.3009
ise	-13.3015
nie	-13.3022
bon	-13.3029
▁toto	-13.303
▁pet	-13.3037
sis	-13.3038
ody	-13.3044
nic	-13.3045
▁cạ	-13.3048
ứ	-13.3056
ction	-13.3067
▁ya	-13.3073
▁home	-13.3077
▁mill	-13.3081
▁vol	-13.3082
▁chuck	-13.3088
▁ngoằn	-13.3093
▁samurai	-13.3094
▁tậu	-13.3094
▁skill	-13.3094
▁odin	-13.3094
▁xóc	-13.3097
▁quít	-13.3098
▁bẽn	-13.3101
▁2001	-13.3102
▁marcel	-13.3102
▁vanh	-13.3108
▁stone	-13.3111
▁vợi	-13.3113
▁mic	-13.3117
▁sy	-13.3119
ư	-13.3147
▁rạ	-13.3155
▁dõ	-13.3161
▁nhú	-13.3168
ika	-13.3184
▁rí	-13.3185
▁donetsk	-13.3187
▁toshiba	-13.3187
▁story	-13.3187
▁search	-13.3187
▁huavê	-13.3187
▁gầu	-13.3187
▁media	-13.3187
▁chổng	-13.3188
▁poster	-13.3188
▁nghêu	-13.3188
▁bli	-13.3189
ssi	-13.319
▁token	-13.3191
▁del	-13.3192
▁hác	-13.3195
▁dử	-13.3198
▁nghén	-13.3199
chen	-13.3209
▁dụa	-13.3215
▁cro	-13.3221
▁wil	-13.3227
▁not	-13.3231
mba	-13.3237
▁luông	-13.3248
▁ss	-13.3251
san	-13.3252
▁levi	-13.3258
▁all	-13.3271
kawa	-13.3277
▁tăn	-13.328
▁sượng	-13.328
▁sparta	-13.328
▁asean	-13.328
▁miểu	-13.3281
▁nhử	-13.3285
▁ski	-13.3288
ves	-13.3288
▁ic	-13.3303
▁leng	-13.3305
▁salad	-13.3306
▁poe	-13.3309
22	-13.3309
▁pl	-13.334
hara	-13.3344
book	-13.3346
▁trư	-13.335
bar	-13.3352
ều	-13.3364
ử	-13.3367
pha	-13.337
gh	-13.3373
▁clockman	-13.3375
▁descartes	-13.3375
▁taliban	-13.3375
▁express	-13.3375
▁shogo	-13.3375
▁wonka	-13.3375
▁truất	-13.3375
▁wow	-13.3375
▁alberto	-13.3376
▁ngoi	-13.3377
▁tráp	-13.338
▁thiu	-13.3382
ula	-13.3395
▁ur	-13.3402
52	-13.3405
▁ash	-13.3408
ớp	-13.3408
tes	-13.3415
▁phốt	-13.342
ĩ	-13.3432
▁cứa	-13.3432
▁nhám	-13.3444
▁sm	-13.346
▁madeleine	-13.347
▁deadline	-13.347
▁learning	-13.347
▁gỉ	-13.347
▁woman	-13.347
▁tuýp	-13.347
▁sảy	-13.3472
▁lúi	-13.3473
▁rờn	-13.3478
▁satan	-13.3479
▁gl	-13.3482
▁cui	-13.3485
▁marco	-13.3486
▁skin	-13.3488
▁fran	-13.3496
▁chới	-13.3507
car	-13.3517
▁tợ	-13.3523
▁kit	-13.3527
▁sony	-13.3535
ới	-13.3552
▁dờ	-13.3559
met	-13.356
▁merkel	-13.3566
▁saddam	-13.3566
▁theranos	-13.3566
▁thặng	-13.3566
▁fiona	-13.3566
▁cravê	-13.3566
▁tuồn	-13.3567
rip	-13.3569
▁ah	-13.357
▁khàng	-13.3573
tan	-13.3576
pad	-13.3585
▁gàn	-13.3586
▁rick	-13.3588
▁over	-13.36
▁mad	-13.3609
▁mom	-13.3611
▁franc	-13.3617
▁lêu	-13.3629
ville	-13.3644
▁xy	-13.3649
▁arab	-13.365
sel	-13.3654
▁hell	-13.3656
▁pra	-13.3658
ữ	-13.3659
▁catnap	-13.3663
▁docker	-13.3663
▁hikaru	-13.3663
▁ireland	-13.3663
▁sapiens	-13.3663
▁hilde	-13.3663
▁guồng	-13.3663
▁khăm	-13.3663
▁cháp	-13.3663
▁phắc	-13.3664
▁nhòe	-13.3664
33	-13.3668
▁yển	-13.3671
▁nhổm	-13.3681
▁cla	-13.3683
ere	-13.3684
▁cast	-13.3695
▁yama	-13.3701
▁hand	-13.3704
umi	-13.3747
▁sar	-13.3761
▁dantès	-13.3761
▁python	-13.3761
▁sẩy	-13.3761
▁social	-13.3761
▁marty	-13.3761
▁hóm	-13.3762
▁nolan	-13.3762
▁sushi	-13.3762
▁lèn	-13.3798
phi	-13.3803
oro	-13.3819
▁tip	-13.3834
▁rei	-13.3846
▁watch	-13.3853
▁led	-13.3857
cer	-13.3859
▁cleopatra	-13.386
▁ferguson	-13.386
▁giụa	-13.386
▁lacey	-13.386
▁nelson	-13.386
▁rắp	-13.386
▁general	-13.386
▁hĩnh	-13.386
▁rắt	-13.386
▁genshin	-13.386
▁allen	-13.386
▁đẫy	-13.386
▁góa	-13.3861
▁tuộc	-13.3862
▁ỉa	-13.3864
kov	-13.3871
▁mason	-13.3877
sche	-13.388
▁loé	-13.389
53	-13.3895
▁bẹ	-13.3904
02	-13.3919
▁lé	-13.392
▁that	-13.3935
▁chởm	-13.3935
▁mồn	-13.3942
▁steven	-13.3945
▁xố	-13.3949
▁thừ	-13.3957
▁trườn	-13.3959
▁harris	-13.396
▁caballo	-13.396
▁chilton	-13.396
▁megumi	-13.396
▁ngoạc	-13.396
▁capone	-13.396
▁gps	-13.3961
▁tuất	-13.3965
sc	-13.3968
▁nhỉnh	-13.3972
▁trader	-13.3977
▁thồ	-13.3982
ether	-13.3988
pr	-13.3988
▁hẹ	-13.3995
▁hến	-13.4
ường	-13.4051
▁bứ	-13.406
▁adolf	-13.4061
▁bủa	-13.4061
▁iceland	-13.4061
▁libya	-13.4061
▁roosevelt	-13.4061
▁đéc	-13.4061
▁arcade	-13.4061
▁gẫm	-13.4061
▁gạc	-13.4061
▁opera	-13.4061
▁cữu	-13.4062
▁vienna	-13.4062
aga	-13.4072
▁ste	-13.4072
▁phụt	-13.4085
▁yumi	-13.4088
▁bit	-13.4088
wi	-13.409
ếc	-13.4101
▁wat	-13.4111
▁core	-13.4115
ụ	-13.4123
▁omni	-13.413
03	-13.4146
▁choán	-13.4162
▁apollo	-13.4163
▁dặc	-13.4163
▁musashi	-13.4163
▁wagner	-13.4163
▁xẹo	-13.4163
▁iron	-13.4163
▁ngăm	-13.4163
▁vitalis	-13.4163
▁daily	-13.4164
▁body	-13.4164
▁chùn	-13.4164
▁ps	-13.417
gar	-13.4178
▁sơi	-13.4179
wear	-13.4185
▁lara	-13.4191
side	-13.4193
▁ea	-13.4194
cal	-13.42
▁mên	-13.4204
▁mei	-13.4208
▁càm	-13.4216
uma	-13.4228
▁hall	-13.4228
▁tâng	-13.4232
▁kum	-13.4233
▁buff	-13.4236
pho	-13.4242
▁mọ	-13.4256
▁columbus	-13.4266
▁diego	-13.4266
▁follow	-13.4266
▁nhựt	-13.4266
▁scarlett	-13.4266
▁xấy	-13.4266
▁yeah	-13.4266
▁nhột	-13.4266
▁quỉ	-13.4266
▁ghềnh	-13.4266
▁barry	-13.4267
▁lợt	-13.4267
▁roy	-13.4267
▁truman	-13.4267
▁model	-13.4268
▁sachi	-13.4271
▁bim	-13.4276
▁lẹt	-13.4276
▁true	-13.4283
▁sean	-13.429
▁xò	-13.4292
▁connor	-13.4308
▁edit	-13.4312
▁450	-13.4312
▁bòn	-13.4316
nus	-13.4321
▁dòi	-13.4335
yu	-13.434
31	-13.4348
ult	-13.435
▁đoá	-13.4365
▁nhữ	-13.4369
▁xè	-13.437
▁narumi	-13.437
▁philadelphia	-13.437
▁tréo	-13.437
▁white	-13.437
▁miều	-13.4371
ena	-13.4372
▁đọt	-13.4372
▁auto	-13.4372
▁phỉnh	-13.4372
▁thênh	-13.4374
▁diết	-13.4375
▁saudi	-13.4375
amie	-13.4376
val	-13.4376
▁nám	-13.4377
▁rột	-13.4378
bia	-13.438
▁toanh	-13.4384
▁hủi	-13.439
gs	-13.4391
▁bờm	-13.44
▁loà	-13.4407
net	-13.4409
▁125	-13.441
hin	-13.4418
uka	-13.442
ich	-13.4431
▁angel	-13.4444
▁robo	-13.445
fu	-13.4451
▁tụm	-13.4457
▁hứ	-13.4473
▁khạo	-13.4476
▁sartre	-13.4476
▁ngoèo	-13.4476
▁rapper	-13.4476
▁xuýt	-13.4476
▁mafia	-13.4476
▁róc	-13.4476
▁képei	-13.4479
▁ròi	-13.448
ợt	-13.4484
▁heroin	-13.449
▁giãi	-13.4492
well	-13.4494
▁nghĩnh	-13.4496
atsu	-13.4505
he	-13.4512
lena	-13.4512
▁lip	-13.4517
ington	-13.4519
▁py	-13.4533
▁andre	-13.4546
sky	-13.4553
phone	-13.4573
▁thè	-13.458
▁mohammed	-13.4582
ealand	-13.4582
▁tengen	-13.4582
▁flash	-13.4582
▁gelat	-13.4582
▁lắt	-13.4582
▁bâu	-13.4583
▁sumer	-13.4584
▁khêu	-13.4587
▁mami	-13.4589
▁food	-13.459
ski	-13.459
▁toáng	-13.4602
ock	-13.4614
ằng	-13.4624
▁hero	-13.4635
lic	-13.4649
▁háng	-13.4651
▁thuy	-13.4663
▁mur	-13.4682
▁dứ	-13.4688
▁buffet	-13.4689
▁gỏng	-13.469
▁tấy	-13.469
▁phướng	-13.469
▁xoạt	-13.469
▁hegel	-13.469
▁nhễ	-13.469
▁chệch	-13.469
▁trập	-13.469
▁niêu	-13.469
▁noah	-13.4691
▁liban	-13.4691
▁xoát	-13.4691
▁đợ	-13.4699
▁ngáng	-13.4701
▁talk	-13.4709
ota	-13.4714
▁shiki	-13.4716
▁fast	-13.4726
▁képa	-13.4737
▁rồn	-13.4745
▁ib	-13.4769
▁char	-13.4769
▁gióng	-13.4785
din	-13.4786
▁mont	-13.479
▁kan	-13.4791
▁luca	-13.4798
▁impact	-13.4798
▁ngoắc	-13.4798
▁hợm	-13.4798
▁island	-13.4798
▁lứt	-13.4799
▁ruby	-13.4799
▁life	-13.4799
ersey	-13.4799
▁candy	-13.4801
▁make	-13.4809
21	-13.4819
ồn	-13.4824
ui	-13.4831
off	-13.4833
kai	-13.4837
▁mona	-13.4849
dt	-13.485
▁qur	-13.4858
ico	-13.4862
▁chile	-13.4874
▁bun	-13.4884
▁andres	-13.489
rel	-13.4891
▁dọ	-13.4891
ò	-13.4897
ỗ	-13.49
▁type	-13.49
mat	-13.4903
▁little	-13.4908
▁liễm	-13.4908
▁maggie	-13.4908
▁pierre	-13.4908
▁domino	-13.4908
▁brett	-13.4908
▁siêm	-13.4909
▁dút	-13.4909
rid	-13.491
▁master	-13.4916
▁high	-13.4918
ashi	-13.492
▁cent	-13.4921
▁syri	-13.4929
▁cheng	-13.4931
▁sụ	-13.4933
▁spi	-13.4941
▁kền	-13.4963
lon	-13.4968
▁nhớp	-13.4969
ở	-13.4973
thy	-13.4978
▁op	-13.4982
burg	-13.4982
▁ber	-13.4983
▁stra	-13.4989
ệp	-13.499
▁queen	-13.5006
▁tó	-13.501
ator	-13.5013
õ	-13.5015
▁bell	-13.5018
▁chặp	-13.5019
▁nepal	-13.5019
▁abby	-13.5019
▁monica	-13.5019
▁brandon	-13.502
▁donna	-13.502
▁ghost	-13.502
▁gray	-13.502
▁chòng	-13.502
▁user	-13.5021
▁key	-13.5025
rum	-13.5043
▁vùn	-13.5061
inger	-13.5069
▁tab	-13.5072
lock	-13.5082
▁phôn	-13.5085
▁choang	-13.5103
▁láp	-13.5118
▁night	-13.5125
ẫy	-13.5129
▁quặn	-13.5131
▁thằn	-13.5131
▁kimono	-13.5132
▁liverpool	-13.5132
▁oái	-13.5132
▁sensei	-13.5132
▁serbia	-13.5132
▁audiobook	-13.5132
▁lõa	-13.5135
▁hin	-13.5138
▁thày	-13.5147
▁dick	-13.5152
▁diu	-13.5163
ary	-13.5164
▁rim	-13.5179
32	-13.5198
▁leon	-13.5215
ội	-13.5217
▁tròi	-13.5237
▁dú	-13.5241
ska	-13.5243
effrey	-13.5245
▁anderson	-13.5245
▁churchill	-13.5245
▁melissa	-13.5245
▁excel	-13.5245
▁madoka	-13.5245
▁carolina	-13.5245
▁cnn	-13.5245
▁hugh	-13.5245
▁dận	-13.5245
▁pepsi	-13.5247
▁nova	-13.5248
▁spoiler	-13.525
▁thiếc	-13.525
oko	-13.5251
▁lẹo	-13.5255
eda	-13.5255
▁from	-13.5267
▁haiti	-13.5275
▁calo	-13.5299
ềm	-13.53
eep	-13.5302
51	-13.5306
bert	-13.5312
ala	-13.5315
ược	-13.5321
▁é	-13.5338
▁kháo	-13.5339
ườm	-13.5351
▁caesar	-13.536
▁chụm	-13.536
▁himalaya	-13.536
▁rữa	-13.536
▁seneca	-13.536
▁munger	-13.536
▁class	-13.536
▁giẻ	-13.536
▁gold	-13.5361
▁rám	-13.5361
▁casey	-13.5362
▁luna	-13.5362
▁mềnh	-13.5362
▁duẫn	-13.5363
▁erin	-13.5364
▁peru	-13.5371
▁thảng	-13.5379
▁saint	-13.5391
▁quì	-13.5395
▁bộp	-13.5406
kh	-13.5408
▁thụp	-13.541
▁chuy	-13.5413
cs	-13.5418
▁shu	-13.5423
bol	-13.5425
▁sồn	-13.5426
▁take	-13.5443
▁end	-13.5457
▁lỏ	-13.5471
▁alfred	-13.5476
▁cacao	-13.5476
▁gabriel	-13.5476
▁kratos	-13.5476
▁massachusetts	-13.5476
▁shankar	-13.5476
▁soviet	-13.5476
▁ọp	-13.5476
▁offline	-13.5476
▁thướt	-13.5477
▁haruka	-13.5477
▁warner	-13.5477
▁tomoe	-13.5477
▁sayuri	-13.5478
▁india	-13.5478
▁sưởng	-13.5479
▁thút	-13.5485
▁cairo	-13.5486
uss	-13.5498
▁part	-13.5499
▁light	-13.5499
bra	-13.5528
tti	-13.5538
▁cụp	-13.5539
▁giạ	-13.5546
▁lạo	-13.5547
▁af	-13.5548
▁wal	-13.5554
▁ngọng	-13.5567
▁dền	-13.5567
ệt	-13.5569
all	-13.557
▁sừn	-13.5593
▁đị	-13.5593
▁columbia	-13.5594
▁napoléon	-13.5594
▁nhụy	-13.5594
▁vốc	-13.5594
▁xoảng	-13.5594
▁thõng	-13.5594
▁silent	-13.5594
▁osaka	-13.5594
▁ngoáy	-13.5594
▁norman	-13.5594
▁xộc	-13.5594
▁hunter	-13.5594
▁clara	-13.5595
▁tằng	-13.5595
▁stark	-13.5595
▁sae	-13.5595
▁linda	-13.5596
▁ios	-13.5596
▁villa	-13.5597
▁ngh	-13.5598
▁bru	-13.5601
▁ara	-13.5606
▁sofa	-13.5607
vy	-13.5609
▁bua	-13.5612
▁yaku	-13.5615
▁your	-13.5621
▁ràn	-13.5637
▁thoan	-13.5641
▁arm	-13.5653
▁tele	-13.5654
▁seth	-13.5656
kha	-13.5673
▁boom	-13.5674
iki	-13.5699
▁nư	-13.5701
▁epictetus	-13.5713
▁felix	-13.5713
▁fisher	-13.5713
▁salman	-13.5713
▁sydney	-13.5713
▁chồi	-13.5713
▁giồng	-13.5713
▁luke	-13.5714
▁miami	-13.5715
▁cook	-13.5715
▁sớt	-13.5715
▁teke	-13.5716
▁ghiếc	-13.5716
ston	-13.572
▁lady	-13.5721
▁viet	-13.5726
▁sur	-13.5728
▁cữ	-13.575
ạt	-13.5778
▁clo	-13.578
▁cv	-13.5783
▁lọn	-13.5787
▁hol	-13.5797
▁ring	-13.5832
▁company	-13.5834
▁cream	-13.5834
▁festival	-13.5834
▁neelima	-13.5834
▁omega	-13.5834
▁valentine	-13.5834
▁wendy	-13.5834
▁self	-13.5834
▁moses	-13.5834
▁isabella	-13.5834
▁chét	-13.5834
▁phị	-13.5835
▁sport	-13.5838
▁dôi	-13.584
▁seri	-13.5867
ata	-13.5874
▁đờn	-13.5885
enn	-13.5888
pol	-13.5896
ette	-13.5902
rea	-13.5902
of	-13.5906
ier	-13.5925
avert	-13.5929
▁stan	-13.5939
▁kat	-13.594
ỳ	-13.5946
▁lock	-13.5953
▁bướu	-13.5956
▁tiễu	-13.5956
▁tưởi	-13.5956
▁oxford	-13.5956
▁thãi	-13.5956
▁grace	-13.5956
▁lức	-13.5956
▁robinson	-13.5956
▁abrams	-13.5956
▁vưu	-13.5956
▁boong	-13.5957
▁greg	-13.596
▁bợm	-13.5962
chu	-13.597
▁máo	-13.5971
▁miller	-13.5972
▁hoen	-13.5979
▁ipo	-13.5986
ộc	-13.5997
▁trạ	-13.6007
▁girl	-13.6015
▁ping	-13.6023
eus	-13.6054
▁abe	-13.6068
▁aladdin	-13.6079
▁aurelius	-13.6079
▁forbes	-13.6079
▁gặng	-13.6079
▁horror	-13.6079
▁kiyosaki	-13.6079
▁mobile	-13.6079
▁picasso	-13.6079
▁rockefeller	-13.6079
▁seattle	-13.6079
▁oản	-13.6079
▁phượt	-13.6079
▁dylan	-13.6079
▁bayern	-13.6079
▁satoru	-13.6079
▁schol	-13.6079
▁north	-13.6079
▁barca	-13.608
▁gien	-13.6082
▁dean	-13.6082
▁xúp	-13.6083
▁giàng	-13.6085
saki	-13.6085
▁luis	-13.6088
▁xùm	-13.6091
▁hòe	-13.6093
▁ẹp	-13.6095
▁tếch	-13.6097
oan	-13.6102
▁land	-13.6108
▁soda	-13.6112
oid	-13.6128
▁milo	-13.6129
ore	-13.6133
▁tech	-13.6143
▁wo	-13.6145
ichiro	-13.6148
▁hana	-13.617
▁beat	-13.6188
ịch	-13.6194
▁chổ	-13.6201
▁bern	-13.6202
▁angola	-13.6204
▁vựa	-13.6204
▁status	-13.6204
▁kpi	-13.6204
▁thoăn	-13.6204
▁speaker	-13.6204
▁debra	-13.6204
▁kabane	-13.6204
▁dẫy	-13.6204
▁gumb	-13.6204
▁herman	-13.6205
▁lúp	-13.6205
verse	-13.6206
▁moon	-13.6206
db	-13.6207
▁lích	-13.6208
▁sượt	-13.6209
▁hiv	-13.621
▁sex	-13.6211
▁ngoác	-13.6215
▁dèm	-13.6222
town	-13.623
▁fat	-13.6237
▁river	-13.6244
▁shell	-13.625
ther	-13.627
▁vip	-13.6271
▁mìm	-13.6291
▁have	-13.6297
▁res	-13.6316
oyo	-13.6321
▁đừ	-13.6324
ầu	-13.6324
▁dát	-13.6331
▁fpv	-13.6331
▁nigeria	-13.6331
▁shichida	-13.6331
▁baltic	-13.6331
tre	-13.6331
▁stinger	-13.6331
▁astro	-13.6331
▁caroline	-13.6331
▁telegram	-13.6331
▁russ	-13.6331
▁south	-13.6332
▁cpi	-13.6332
▁liga	-13.6333
▁phé	-13.6333
▁chạch	-13.6333
▁action	-13.6334
▁asher	-13.6334
▁thiếm	-13.6335
▁váo	-13.6337
▁rúp	-13.6337
▁rum	-13.6337
▁pay	-13.6346
▁thều	-13.635
▁trám	-13.635
ness	-13.6352
ale	-13.6355
▁glucose	-13.6357
▁sher	-13.6357
ồng	-13.6369
able	-13.6387
▁trùn	-13.639
ual	-13.6395
▁vina	-13.6397
tec	-13.6402
01	-13.6403
ễn	-13.6412
ắt	-13.642
ếm	-13.6426
▁caro	-13.6431
▁thá	-13.6445
ure	-13.645
ward	-13.6457
▁trự	-13.6458
▁isabel	-13.6459
▁bấc	-13.6459
▁kharkov	-13.6459
▁klaus	-13.6459
▁vinfast	-13.6459
▁alaska	-13.6459
▁shopping	-13.6459
▁doctor	-13.6459
▁lucky	-13.6459
▁stop	-13.6459
▁sepp	-13.6459
ẳn	-13.646
▁hume	-13.646
ors	-13.6465
▁track	-13.6466
▁trans	-13.6473
▁ngụt	-13.6474
▁pot	-13.6478
▁old	-13.648
▁off	-13.6499
ume	-13.6507
▁leg	-13.6552
▁les	-13.6568
▁cole	-13.6572
▁band	-13.6575
erusalem	-13.6589
▁aaron	-13.6589
▁harley	-13.6589
▁hằm	-13.6589
▁kingdom	-13.6589
▁school	-13.6589
▁dó	-13.6589
▁event	-13.6589
▁sariette	-13.6589
▁easter	-13.6589
▁khiễng	-13.6589
▁morris	-13.6589
▁walker	-13.6589
▁ohio	-13.6589
▁niềng	-13.6589
▁danny	-13.6592
oka	-13.6593
▁quạng	-13.6596
▁rocket	-13.66
▁chệ	-13.661
ky	-13.6614
▁sato	-13.6615
bot	-13.6621
▁wood	-13.6627
▁hd	-13.6656
▁get	-13.6661
aya	-13.6663
▁ngồn	-13.6666
ald	-13.6667
ame	-13.667
ù	-13.668
ổ	-13.6681
▁miya	-13.6682
▁thàn	-13.6683
ump	-13.6684
box	-13.6689
▁nori	-13.6695
▁cool	-13.6696
ene	-13.6717
▁gú	-13.672
▁credit	-13.672
▁florentina	-13.672
▁khấm	-13.672
▁poppins	-13.672
▁rứa	-13.672
▁ursula	-13.672
▁đước	-13.672
▁marshall	-13.672
▁hiromi	-13.672
▁lỉnh	-13.672
▁tễ	-13.6721
▁trậu	-13.6721
▁chõng	-13.6721
▁cắc	-13.6721
▁francs	-13.6721
▁khưu	-13.6724
▁sòm	-13.6727
▁kệch	-13.6728
▁bad	-13.6734
▁mari	-13.6735
▁sand	-13.6739
▁đếch	-13.6755
row	-13.6756
▁phè	-13.6759
▁ngộp	-13.6761
▁with	-13.6771
oni	-13.6774
▁chum	-13.6796
▁sv	-13.6807
▁04	-13.6808
▁oe	-13.6809
▁coco	-13.6818
▁xeo	-13.6829
▁rù	-13.6842
▁đù	-13.6842
ưởng	-13.6849
▁michel	-13.6853
▁gụ	-13.6853
▁nĩa	-13.6854
▁lovecraft	-13.6854
▁arkad	-13.6854
▁selena	-13.6854
▁romania	-13.6854
▁liệp	-13.6854
▁magic	-13.6855
▁otto	-13.6855
▁xki	-13.6855
▁hích	-13.6855
▁nobu	-13.6856
▁só	-13.6857
▁spam	-13.6859
ance	-13.6863
▁vại	-13.6865
▁ole	-13.6865
dar	-13.687
▁logan	-13.687
▁neil	-13.6878
▁bọng	-13.6883
▁nạm	-13.6884
▁inca	-13.6893
▁cali	-13.6922
▁yoshi	-13.6926
▁chạ	-13.693
ef	-13.6946
▁rt	-13.6951
her	-13.6965
▁tộ	-13.6986
▁flynn	-13.6989
▁higuruma	-13.6989
▁huawei	-13.6989
▁osiris	-13.6989
▁rothschild	-13.6989
▁mobius	-13.6989
▁shipper	-13.6989
▁bruce	-13.6989
▁next	-13.6989
▁salon	-13.699
▁tiger	-13.699
▁toạ	-13.6992
▁lụm	-13.6992
▁thuỳ	-13.6995
▁hiro	-13.6996
▁nái	-13.6998
▁bum	-13.7004
▁vồn	-13.7009
▁gành	-13.7013
una	-13.7043
▁gre	-13.7052
fit	-13.7056
cia	-13.7058
▁dọng	-13.7072
non	-13.7073
▁arian	-13.7084
▁mig	-13.7084
ầm	-13.7091
▁lenin	-13.7098
stein	-13.7113
▁pun	-13.7113
care	-13.712
▁best	-13.712
▁rọ	-13.7122
▁chằn	-13.7125
▁khụ	-13.7125
▁hecta	-13.7126
bollah	-13.7126
▁athena	-13.7126
▁christopher	-13.7126
▁fantine	-13.7126
▁harvey	-13.7126
▁illuminati	-13.7126
▁khịt	-13.7126
▁mimic	-13.7126
▁phnom	-13.7126
▁pixel	-13.7126
▁vingroup	-13.7126
▁lậy	-13.7126
▁xắt	-13.7126
▁claudia	-13.7126
▁dỏm	-13.7126
▁đúp	-13.7126
▁dượt	-13.7127
▁nằng	-13.7127
▁tiktoker	-13.7128
▁roll	-13.7135
▁trổi	-13.7145
▁penh	-13.7147
▁kane	-13.7147
▁dơm	-13.7148
▁fdi	-13.7152
▁eco	-13.7162
ôi	-13.7167
ulie	-13.7178
▁ồm	-13.7189
rica	-13.719
ươi	-13.7201
▁kemp	-13.7211
▁kháu	-13.7213
less	-13.7213
▁cp	-13.7219
ux	-13.7226
▁khuông	-13.723
▁gene	-13.7237
udo	-13.7239
▁fire	-13.7248
wh	-13.7253
▁nhẹp	-13.7263
▁bươn	-13.7264
▁rằn	-13.7264
▁amelia	-13.7265
▁better	-13.7265
▁captain	-13.7265
▁fletcher	-13.7265
▁gièm	-13.7265
▁guardiola	-13.7265
▁manuel	-13.7265
▁margot	-13.7265
▁point	-13.7265
▁rewind	-13.7265
▁swift	-13.7265
▁vatican	-13.7265
▁đằm	-13.7265
▁clarice	-13.7265
▁earth	-13.7265
▁flex	-13.7265
▁kaisen	-13.7265
▁khạc	-13.7265
▁burger	-13.7265
▁tommy	-13.7265
▁tẫn	-13.7265
▁tược	-13.7265
▁xoàng	-13.7265
weird	-13.7266
▁gacha	-13.7266
▁nhọt	-13.7267
▁carla	-13.7268
▁young	-13.7271
▁vietnam	-13.7273
▁see	-13.7286
enki	-13.7294
▁sala	-13.7295
▁hùn	-13.7298
lus	-13.73
▁bìm	-13.7302
sley	-13.7304
▁giòng	-13.7307
eller	-13.7312
hon	-13.7323
▁form	-13.7324
▁đáu	-13.7334
▁xệ	-13.7336
shin	-13.7349
shu	-13.7349
use	-13.7352
▁cheo	-13.7356
▁115	-13.7359
▁dc	-13.7368
▁gua	-13.738
▁mòng	-13.7385
▁ever	-13.7395
lar	-13.7396
▁pere	-13.7401
▁chã	-13.7404
▁dream	-13.7405
▁format	-13.7405
▁abigail	-13.7405
▁cambodia	-13.7405
▁cambridge	-13.7405
▁gwen	-13.7405
▁hakari	-13.7405
▁hogwarts	-13.7405
▁ngoạm	-13.7405
▁version	-13.7406
▁marvin	-13.7406
▁vè	-13.7406
▁feet	-13.7406
▁calor	-13.7406
▁alien	-13.7406
ablo	-13.7407
▁nhéo	-13.7409
▁poker	-13.741
▁gảy	-13.7411
▁dé	-13.7415
▁nhộng	-13.7415
▁sới	-13.7416
▁thùa	-13.7423
▁bíp	-13.7438
▁kang	-13.744
▁market	-13.7443
▁gro	-13.7448
0000	-13.7449
▁mùn	-13.7468
agu	-13.7501
▁mia	-13.7506
coin	-13.7509
▁hara	-13.7527
ew	-13.7527
▁gil	-13.7531
▁misa	-13.7536
▁obi	-13.7547
▁dante	-13.7548
▁dấm	-13.7548
▁hybrid	-13.7548
▁kafka	-13.7548
▁machiavelli	-13.7548
▁mickey	-13.7548
▁ngừơi	-13.7548
▁peggy	-13.7548
eremy	-13.7548
▁emmanuel	-13.7548
▁noriko	-13.7548
▁greenland	-13.7548
▁rịch	-13.7549
▁akira	-13.7549
▁spot	-13.7549
▁xầm	-13.7549
▁hoắt	-13.7549
▁five	-13.7549
▁toaster	-13.7549
▁giậu	-13.755
▁chạng	-13.755
▁vuột	-13.755
▁fox	-13.7554
▁ito	-13.7559
▁kana	-13.7561
▁144	-13.7564
▁mora	-13.7567
▁roman	-13.7569
▁mid	-13.7576
▁nayana	-13.7582
uno	-13.7586
agi	-13.7587
▁nike	-13.7587
▁xàm	-13.759
▁nita	-13.7598
gate	-13.7607
star	-13.7612
▁heli	-13.7613
▁buck	-13.7628
yusuke	-13.7628
▁hayley	-13.7636
▁lava	-13.7646
▁nhuế	-13.765
▁sars	-13.7661
ence	-13.7662
ous	-13.7671
▁rich	-13.7672
▁hom	-13.768
▁sri	-13.7682
▁lõ	-13.7684
▁chò	-13.7688
▁alma	-13.7688
ầy	-13.7689
▁núc	-13.7693
▁shantaram	-13.7693
▁xẩy	-13.7693
▁valkyrie	-13.7693
▁steam	-13.7693
▁combat	-13.7693
▁huề	-13.7694
▁boris	-13.7694
▁negan	-13.7694
▁vtv	-13.7694
▁gẫy	-13.7694
▁tọt	-13.7694
▁proton	-13.7694
▁sayama	-13.7697
▁mót	-13.7701
tech	-13.7706
▁cùm	-13.7708
▁head	-13.771
win	-13.7718
▁saka	-13.7722
▁ryo	-13.7724
oằn	-13.7731
▁thọt	-13.7741
press	-13.7743
gue	-13.7749
▁books	-13.7754
▁kira	-13.7755
▁shinichi	-13.7759
▁nhẹm	-13.776
ửa	-13.7763
enin	-13.7763
tik	-13.7769
▁arn	-13.7776
oker	-13.778
▁more	-13.779
▁haru	-13.7792
▁nhép	-13.7809
ẹn	-13.7821
gami	-13.7837
▁ngùn	-13.7839
▁august	-13.784
▁armaan	-13.784
▁boruto	-13.784
▁caribe	-13.784
▁galileo	-13.784
▁lebanon	-13.784
▁machine	-13.784
▁mohammad	-13.784
▁rốc	-13.784
▁tẩn	-13.784
▁style	-13.784
▁hillary	-13.784
▁raymond	-13.784
▁garden	-13.784
▁aquaman	-13.784
▁stella	-13.784
▁lucia	-13.784
▁nịt	-13.7841
▁tóp	-13.7841
▁hụi	-13.7842
▁vằng	-13.7844
▁rita	-13.7847
00000	-13.7848
▁mớm	-13.7865
▁bỉm	-13.7879
oku	-13.7882
▁mega	-13.7887
elli	-13.7905
usa	-13.7919
▁bull	-13.7923
gawa	-13.7925
▁card	-13.7926
▁state	-13.7931
▁cop	-13.7938
▁momo	-13.7942
▁cov	-13.7945
ode	-13.7955
uli	-13.7963
▁america	-13.7969
▁bư	-13.797
▁101	-13.7972
▁tor	-13.7973
▁dana	-13.7981
▁đú	-13.7985
▁cameron	-13.799
▁dutron	-13.799
▁loảng	-13.799
▁multi	-13.799
▁scandal	-13.799
▁haibara	-13.799
▁qaeda	-13.799
▁yamamoto	-13.799
▁augustine	-13.799
▁short	-13.799
▁muồi	-13.799
▁friends	-13.799
▁thát	-13.7991
umaki	-13.7991
▁súy	-13.7991
▁sudan	-13.7991
▁intro	-13.7991
▁chanel	-13.7991
▁nhạnh	-13.7996
ận	-13.8
▁chơn	-13.8004
▁walter	-13.8005
▁nãi	-13.8006
▁01	-13.8009
▁xép	-13.8011
rim	-13.8025
tus	-13.8034
▁water	-13.8062
▁won	-13.8079
stra	-13.808
▁bện	-13.8103
▁are	-13.8111
▁atlanta	-13.8141
▁bosnia	-13.8141
▁crystal	-13.8141
▁hoffman	-13.8141
▁hussein	-13.8141
▁istanbul	-13.8141
▁klose	-13.8141
▁ocop	-13.8141
▁samuel	-13.8141
▁thẹo	-13.8141
▁geneva	-13.8141
▁wifi	-13.8141
▁luther	-13.8141
▁nguệch	-13.8141
▁bậm	-13.8142
▁hây	-13.8142
▁audio	-13.8142
▁nồm	-13.8142
▁chình	-13.8143
▁siri	-13.8144
▁cover	-13.8144
▁ishi	-13.8144
▁thượt	-13.8147
▁trading	-13.8147
ord	-13.8152
▁down	-13.8162
rock	-13.8167
▁muông	-13.817
▁hino	-13.8175
▁masa	-13.8177
▁quài	-13.8201
▁lab	-13.8203
▁frankl	-13.8208
▁task	-13.8219
▁102	-13.8236
ỷ	-13.8256
ali	-13.8258
ếch	-13.8259
▁garo	-13.8263
▁yasu	-13.8278
▁láy	-13.8281
▁mos	-13.8287
▁mv	-13.8291
mut	-13.8292
▁croatia	-13.8295
▁evergrande	-13.8295
▁khẩm	-13.8295
▁manhattan	-13.8295
▁muramasa	-13.8295
▁rặt	-13.8295
▁travis	-13.8295
▁yahoo	-13.8295
▁lucci	-13.8295
▁trây	-13.8295
▁truân	-13.8295
▁gườm	-13.8295
▁adnan	-13.8296
▁phư	-13.8296
▁perry	-13.8296
▁sayoko	-13.8296
▁lỏm	-13.8297
▁lúm	-13.8299
▁lằng	-13.8299
▁chiền	-13.8305
▁ola	-13.8313
vers	-13.8318
edi	-13.8325
pc	-13.8325
▁kali	-13.8327
▁nino	-13.8328
▁220	-13.8334
born	-13.834
▁sạ	-13.8345
▁dệ	-13.8355
cd	-13.8362
▁phone	-13.8374
▁alexandr	-13.8378
▁trành	-13.8386
▁ian	-13.8396
▁ngũi	-13.8396
▁chô	-13.8398
▁cỡi	-13.8398
▁vảng	-13.8399
▁herr	-13.84
ằ	-13.8409
▁ngạ	-13.8421
the	-13.8424
▁but	-13.8431
tas	-13.8436
▁ahmed	-13.8451
▁bhutan	-13.8451
▁bươm	-13.8451
▁epic	-13.8451
▁knight	-13.8451
▁lenovo	-13.8451
▁muốt	-13.8451
▁thộn	-13.8451
▁katona	-13.8451
▁antonio	-13.8451
▁edgar	-13.8451
▁panama	-13.8451
▁rườm	-13.8451
▁uầy	-13.8452
▁snap	-13.8452
▁sạo	-13.8452
ical	-13.8452
▁nhảnh	-13.8453
▁cell	-13.8453
▁xuể	-13.8454
▁đừn	-13.8457
▁lộp	-13.8458
vel	-13.8466
▁mono	-13.8467
tle	-13.8468
▁ryu	-13.8468
▁gùi	-13.847
▁brahman	-13.8473
hy	-13.8473
▁05	-13.8475
▁hag	-13.8478
▁toé	-13.8479
ẫn	-13.8479
ido	-13.8481
▁brick	-13.8483
▁nhản	-13.8485
▁clark	-13.85
▁toe	-13.8504
rai	-13.8516
▁đoạ	-13.8527
bank	-13.8528
▁lòm	-13.853
▁andrea	-13.8531
bus	-13.8545
▁moni	-13.8566
cks	-13.8572
ics	-13.8576
▁brit	-13.8583
▁stu	-13.8584
los	-13.8584
▁polo	-13.8586
boy	-13.8592
▁ờm	-13.8595
▁hỏ	-13.8605
▁ươn	-13.8609
▁abdullah	-13.861
▁berkshire	-13.861
▁beverly	-13.861
▁bmw	-13.861
▁database	-13.861
▁gideon	-13.861
▁gillette	-13.861
▁lặc	-13.861
▁mứa	-13.861
▁stilo	-13.861
▁carrie	-13.861
▁covey	-13.861
▁sharon	-13.861
▁giầu	-13.861
▁break	-13.861
▁tầu	-13.861
▁nanako	-13.861
▁xắc	-13.861
▁asus	-13.8611
▁bủn	-13.8611
▁đỉa	-13.8611
▁duẩn	-13.8611
▁dantes	-13.8611
▁đúa	-13.8611
▁giạt	-13.8611
▁sec	-13.8612
▁ém	-13.8612
▁tuếch	-13.8613
▁dọi	-13.8613
▁niet	-13.8613
▁wally	-13.8613
ovic	-13.8618
▁batman	-13.8619
cord	-13.862
▁camp	-13.8621
▁beng	-13.8622
ăng	-13.8623
▁vene	-13.8624
▁tuý	-13.8626
hammer	-13.8641
▁prem	-13.8645
▁ruth	-13.8647
▁hee	-13.8651
▁thạ	-13.8669
▁yes	-13.8674
▁nghịt	-13.8675
rby	-13.8704
ồi	-13.8704
▁blanche	-13.8706
red	-13.8715
èo	-13.8725
▁rá	-13.873
▁asa	-13.8732
▁ross	-13.8739
ãi	-13.8753
▁bòng	-13.8767
▁friend	-13.8771
▁berkeley	-13.8771
▁cartoon	-13.8771
▁gloria	-13.8771
▁lewis	-13.8771
▁murphy	-13.8771
▁naruto	-13.8771
▁navia	-13.8771
▁rói	-13.8771
▁saitama	-13.8771
▁tweet	-13.8771
▁vinci	-13.8771
▁waytowear	-13.8771
▁annabel	-13.8771
▁eddie	-13.8771
▁lukaku	-13.8771
▁word	-13.8771
▁spiderum	-13.8771
▁khều	-13.8771
▁képeb	-13.8772
▁iris	-13.8772
▁xiến	-13.8772
▁davis	-13.8772
▁hela	-13.8773
▁kiểng	-13.8774
▁ót	-13.8774
▁kill	-13.8777
▁nora	-13.8779
ory	-13.878
shima	-13.8785
▁ngụp	-13.8785
olo	-13.8789
▁pam	-13.879
▁lải	-13.8793
light	-13.8798
▁petro	-13.8815
▁boo	-13.8821
rton	-13.8824
bat	-13.8824
▁vòn	-13.8848
▁nạng	-13.8848
▁williams	-13.8871
▁soul	-13.8895
▁ms	-13.8896
▁112	-13.8907
▁ig	-13.8911
▁kinda	-13.8931
▁leonard	-13.8934
▁colorado	-13.8935
▁ftx	-13.8935
▁ikigai	-13.8935
▁kirie	-13.8935
▁national	-13.8935
▁orleans	-13.8935
▁sandwich	-13.8935
▁twist	-13.8935
▁ướm	-13.8935
▁mitchell	-13.8935
▁dennis	-13.8935
▁angelina	-13.8935
▁admin	-13.8935
heimer	-13.8935
▁michelle	-13.8935
▁mếch	-13.8936
▁nẹp	-13.8936
▁money	-13.8936
▁gpt	-13.8936
▁rọc	-13.8936
▁mentor	-13.8936
▁sandy	-13.8937
▁flc	-13.8938
▁dũa	-13.8938
tv	-13.894
▁turk	-13.894
▁metro	-13.8941
▁cùn	-13.8948
▁nhải	-13.8948
▁foot	-13.8951
▁tạch	-13.8954
▁par	-13.8956
nier	-13.8967
▁chill	-13.8968
▁vọ	-13.8985
rab	-13.8996
▁moan	-13.8997
▁kro	-13.8999
▁240	-13.9013
beck	-13.9014
▁tinder	-13.9045
▁oà	-13.9047
ý	-13.9058
eck	-13.9084
bow	-13.9089
▁niko	-13.909
▁agency	-13.9102
▁deadpool	-13.9102
▁isamu	-13.9102
▁macedonia	-13.9102
▁mildred	-13.9102
▁mourinho	-13.9102
▁sphinx	-13.9102
▁teresa	-13.9102
▁final	-13.9102
▁esther	-13.9102
▁wolf	-13.9102
▁quinn	-13.9102
▁marilla	-13.9102
▁slam	-13.9102
▁option	-13.9102
▁venice	-13.9102
▁chọt	-13.9102
▁phạch	-13.9102
▁nikk	-13.9102
▁mochi	-13.9103
▁xịp	-13.9103
▁koro	-13.9105
huơ	-13.9105
▁mino	-13.911
▁gh	-13.9113
▁mix	-13.9114
▁think	-13.9114
▁lord	-13.9115
ợm	-13.9118
lov	-13.9122
▁sè	-13.9124
▁space	-13.9128
dvê	-13.9135
station	-13.9144
nor	-13.9146
▁đư	-13.9149
▁karl	-13.915
ury	-13.9154
maru	-13.9162
phe	-13.9162
▁mio	-13.9163
▁killer	-13.92
▁kid	-13.9202
▁gun	-13.9222
▁ata	-13.9222
▁hoác	-13.9227
ech	-13.9234
▁add	-13.9235
lat	-13.9237
house	-13.924
▁rơn	-13.9243
▁nả	-13.9244
▁nana	-13.9251
▁105	-13.9251
onah	-13.9258
mex	-13.9261
more	-13.9268
▁battlecry	-13.9271
▁bianca	-13.9271
▁italy	-13.9271
▁marilyn	-13.9271
▁pedro	-13.9271
▁stephanie	-13.9271
▁taurus	-13.9271
▁tróng	-13.9271
▁xavier	-13.9271
▁ferrari	-13.9271
▁overwatch	-13.9271
▁help	-13.9271
▁slide	-13.9271
▁future	-13.9271
▁price	-13.9272
▁rở	-13.9272
▁nakata	-13.9272
▁nghẽo	-13.9272
▁bẫm	-13.9272
▁erika	-13.9272
▁dớt	-13.9272
▁rọt	-13.9273
▁bõm	-13.9273
▁rạt	-13.9273
▁rảy	-13.9273
▁sally	-13.9273
▁cpu	-13.9274
▁húy	-13.9279
▁rày	-13.9279
▁sến	-13.9282
eger	-13.9289
pin	-13.9291
▁nhít	-13.9293
ote	-13.9301
▁house	-13.9303
anet	-13.9304
▁fri	-13.9311
ần	-13.9321
▁550	-13.933
▁naga	-13.9334
bit	-13.9337
aca	-13.9341
▁luy	-13.9346
esse	-13.935
hei	-13.9364
▁gregor	-13.9367
▁bee	-13.9368
▁shah	-13.9377
xin	-13.9387
chan	-13.9399
other	-13.9409
ườn	-13.9412
▁mừn	-13.9443
▁silver	-13.9444
▁brooke	-13.9444
▁diesel	-13.9444
▁mẩm	-13.9444
▁nhuốc	-13.9444
▁rướn	-13.9444
▁rịp	-13.9444
▁uraume	-13.9444
▁vector	-13.9444
▁sultan	-13.9444
▁persona	-13.9444
▁year	-13.9444
▁guộc	-13.9444
▁dăng	-13.9444
▁fear	-13.9444
▁xụp	-13.9444
▁rẹt	-13.9444
▁sunny	-13.9445
▁enid	-13.9445
▁cloud	-13.9446
ingles	-13.9446
▁spy	-13.9446
▁amane	-13.9446
▁pasa	-13.9446
▁pink	-13.9448
rut	-13.9448
▁cut	-13.9449
▁dờn	-13.9454
back	-13.9463
▁ek	-13.9466
kv	-13.9472
▁met	-13.9473
uela	-13.9478
▁dell	-13.9513
▁gá	-13.9515
▁cara	-13.9524
dium	-13.9529
mond	-13.953
▁arg	-13.9536
▁đên	-13.9559
moth	-13.9575
▁kol	-13.9577
▁ala	-13.9581
ship	-13.9594
▁helio	-13.96
▁rề	-13.9611
▁hể	-13.9612
path	-13.9613
▁hẻ	-13.9617
ful	-13.9617
▁đì	-13.9619
▁prince	-13.9619
▁evil	-13.9619
▁hyundai	-13.9619
▁ocean	-13.9619
▁sophia	-13.9619
▁luỹ	-13.9619
▁barker	-13.962
▁carlos	-13.962
▁holly	-13.962
btc	-13.962
▁nắc	-13.9621
▁triện	-13.9622
▁marvels	-13.9624
▁2050	-13.9626
eans	-13.9627
▁oda	-13.9628
▁xìu	-13.964
▁đui	-13.9656
▁suu	-13.9658
mita	-13.9661
▁box	-13.9663
mar	-13.9666
ret	-13.9675
motion	-13.9685
▁ạch	-13.9697
rta	-13.9708
▁atm	-13.9718
▁kếch	-13.9731
lb	-13.9739
▁kumar	-13.9768
▁vice	-13.9769
sey	-13.9775
▁kami	-13.978
ẫu	-13.9797
▁trè	-13.9797
▁background	-13.9798
▁benben	-13.9798
▁cassette	-13.9798
▁chặc	-13.9798
▁dmitry	-13.9798
▁ethiopia	-13.9798
▁killua	-13.9798
▁madison	-13.9798
▁mandela	-13.9798
▁nhụt	-13.9798
▁noãn	-13.9798
▁omicron	-13.9798
▁phantom	-13.9798
▁quặt	-13.9798
▁reuters	-13.9798
▁trấu	-13.9798
▁viktor	-13.9798
▁mommy	-13.9798
▁napoli	-13.9798
▁nhõng	-13.9798
▁delta	-13.9798
▁palm	-13.9798
▁tiếm	-13.9798
▁sexy	-13.9799
▁fall	-13.9799
▁puss	-13.9799
▁bali	-13.9799
▁chẹt	-13.9799
▁sướt	-13.98
▁chlo	-13.98
▁xuông	-13.98
▁hope	-13.9801
▁genos	-13.9802
▁nemo	-13.9802
▁dy	-13.9803
▁huyến	-13.9804
▁audi	-13.9816
ình	-13.9819
▁đờm	-13.9821
▁lanka	-13.9839
ander	-13.984
cco	-13.9841
rop	-13.9843
leach	-13.9843
rman	-13.9851
▁rep	-13.9861
▁meme	-13.988
▁giạc	-13.9881
▁cris	-13.9892
▁crow	-13.9892
▁kuro	-13.9902
▁ngồ	-13.9915
▁photo	-13.9927
▁gran	-13.993
▁lử	-13.9977
▁hự	-13.9979
▁casino	-13.998
▁kodak	-13.998
▁mbappe	-13.998
▁miriam	-13.998
▁pharaoh	-13.998
▁phoenix	-13.998
▁santiago	-13.998
▁shadow	-13.998
▁vanessa	-13.998
▁secret	-13.998
▁ghẽ	-13.998
▁rockstar	-13.998
▁bernard	-13.998
▁shady	-13.998
▁egg	-13.998
▁silverman	-13.998
▁gege	-13.998
▁spacex	-13.998
▁gổ	-13.998
▁terry	-13.998
▁cạc	-13.9981
▁peterson	-13.9981
▁barack	-13.9981
▁latinh	-13.9982
▁kiềng	-13.9982
▁lém	-13.9983
▁vập	-13.9983
▁chester	-13.9986
▁layer	-13.9988
▁troy	-13.9989
▁nàm	-13.9991
▁system	-13.9994
▁sata	-13.9995
▁doris	-14.0013
▁điệm	-14.0015
mark	-14.0017
▁ngọa	-14.0035
▁was	-14.0038
stone	-14.004
▁đă	-14.004
ingham	-14.0053
âu	-14.0055
▁fro	-14.0073
▁disc	-14.008
uru	-14.0083
ology	-14.0104
▁fra	-14.012
▁luộ	-14.0142
rem	-14.0148
▁gư	-14.0151
suke	-14.016
▁rỏ	-14.0163
▁abidan	-14.0165
▁angkor	-14.0165
▁cosette	-14.0165
▁dopamine	-14.0165
▁florence	-14.0165
▁inachio	-14.0165
▁phễu	-14.0165
▁tressilian	-14.0165
▁trẽn	-14.0165
▁viral	-14.0165
▁hiroshima	-14.0165
▁ẻo	-14.0165
▁luyên	-14.0165
▁weibo	-14.0165
▁richter	-14.0165
▁flow	-14.0165
▁string	-14.0165
▁valley	-14.0165
▁enderman	-14.0165
▁nhầu	-14.0165
▁tậm	-14.0165
▁xằng	-14.0165
▁oăm	-14.0165
▁hập	-14.0165
▁kenya	-14.0166
▁ender	-14.0167
▁rogers	-14.0167
▁nhặng	-14.0169
▁xuê	-14.0172
▁suyễn	-14.0173
▁smil	-14.0177
▁banban	-14.0179
▁sất	-14.0182
▁trade	-14.0185
▁rội	-14.0192
▁vón	-14.0197
▁bert	-14.0199
▁fund	-14.0199
▁dave	-14.0203
▁teen	-14.0205
pit	-14.0207
▁def	-14.0218
ania	-14.0218
▁lost	-14.0222
▁tíc	-14.0225
▁age	-14.0225
▁trê	-14.0227
▁hide	-14.0228
▁huo	-14.0237
▁arc	-14.024
▁marc	-14.0258
▁lởn	-14.0264
lc	-14.027
▁230	-14.0292
pd	-14.0301
tia	-14.0301
▁hop	-14.0316
▁oppo	-14.032
▁pill	-14.0321
▁lợ	-14.0337
berry	-14.0344
uda	-14.0345
eter	-14.0353
▁motor	-14.0353
▁focus	-14.0353
▁kruger	-14.0353
▁memphis	-14.0353
▁penalty	-14.0353
▁pennsylvania	-14.0353
▁people	-14.0353
▁robbins	-14.0353
▁spyroom	-14.0353
▁sẩm	-14.0353
▁toxic	-14.0353
▁capital	-14.0353
▁huggy	-14.0353
aneway	-14.0354
▁olaf	-14.0354
▁lếch	-14.0354
▁henri	-14.0354
▁streamer	-14.0355
▁stray	-14.0355
▁pơ	-14.0355
▁beth	-14.0356
▁rái	-14.0356
▁amir	-14.0356
▁xình	-14.036
▁nhảo	-14.036
▁155	-14.0363
▁gina	-14.0367
rate	-14.0368
▁fort	-14.0373
▁saga	-14.0386
lay	-14.0386
quin	-14.0392
▁redm	-14.0421
ave	-14.0429
ệu	-14.0453
tsuki	-14.0458
▁vư	-14.0491
▁fab	-14.0502
bre	-14.0509
yoshi	-14.0515
lee	-14.0532
ột	-14.0535
rod	-14.0536
▁giôn	-14.0545
▁phạc	-14.0545
▁account	-14.0546
▁caramel	-14.0546
▁coffee	-14.0546
▁collagen	-14.0546
▁fukuoka	-14.0546
▁gotham	-14.0546
▁remains	-14.0546
▁sật	-14.0546
▁trevor	-14.0546
▁đuốt	-14.0546
▁gilbert	-14.0546
▁shuichi	-14.0546
▁choảng	-14.0546
▁great	-14.0546
▁frame	-14.0546
▁attack	-14.0546
▁avengers	-14.0546
▁golden	-14.0546
▁concert	-14.0546
▁nguậy	-14.0546
▁treves	-14.0546
▁hiêu	-14.0547
▁xồm	-14.0547
▁sandra	-14.0547
▁nhạm	-14.0547
▁rivo	-14.0547
▁ụp	-14.0548
elle	-14.0549
gerald	-14.055
list	-14.0552
▁rùn	-14.0553
▁alana	-14.0553
▁willy	-14.0556
stor	-14.0556
read	-14.0584
▁edo	-14.0607
▁dặng	-14.0611
▁hua	-14.0623
▁gru	-14.0633
▁sền	-14.0639
▁nồ	-14.064
▁bros	-14.0663
▁gê	-14.0693
ọt	-14.0698
work	-14.0711
▁elisa	-14.0711
▁thóa	-14.0715
▁hụ	-14.0738
▁quăn	-14.0741
▁snow	-14.0742
▁avatar	-14.0742
▁becker	-14.0742
▁brunei	-14.0742
▁feedback	-14.0742
▁fontaine	-14.0742
▁global	-14.0742
▁gằm	-14.0742
▁houston	-14.0742
▁hoắm	-14.0742
▁inamori	-14.0742
▁insert	-14.0742
▁miễu	-14.0742
▁neuron	-14.0742
▁quixote	-14.0742
▁sashimi	-14.0742
▁stockholm	-14.0742
▁vểnh	-14.0742
▁vối	-14.0742
▁yemin	-14.0742
▁đễnh	-14.0742
▁lachon	-14.0742
▁highlight	-14.0742
▁saigon	-14.0742
▁skull	-14.0742
▁tadda	-14.0742
▁delhi	-14.0742
▁ngâu	-14.0742
▁plot	-14.0742
▁royde	-14.0742
▁openai	-14.0742
▁đoài	-14.0742
▁sheet	-14.0742
▁nhây	-14.0742
▁ipod	-14.0742
▁wu	-14.0744
▁sùm	-14.0746
▁acer	-14.0747
▁mĩm	-14.0749
ias	-14.0749
amorin	-14.075
▁xếch	-14.0751
▁nhèm	-14.0753
▁roberto	-14.0754
▁runner	-14.0758
▁kurt	-14.076
▁nhíp	-14.076
▁nikola	-14.0761
▁mèn	-14.0765
▁háu	-14.0766
arch	-14.0774
▁sari	-14.0788
lling	-14.0789
ook	-14.0814
ạn	-14.0818
▁yui	-14.082
òng	-14.0821
kaku	-14.0823
▁nara	-14.0847
game	-14.0867
▁cậ	-14.0868
wit	-14.0877
▁semi	-14.088
rth	-14.0897
slav	-14.0918
▁mind	-14.092
▁lớ	-14.0934
▁đụn	-14.0941
uckerberg	-14.0942
▁bangladesh	-14.0942
▁blatter	-14.0942
▁ebv	-14.0942
▁illinois	-14.0942
▁origin	-14.0942
▁otoko	-14.0942
▁phỗng	-14.0942
▁rolex	-14.0942
▁science	-14.0942
▁tarahumara	-14.0942
▁wright	-14.0942
▁charlotte	-14.0942
▁pluto	-14.0942
▁ariska	-14.0942
▁minigame	-14.0942
▁trột	-14.0942
▁bullet	-14.0942
▁mecca	-14.0942
▁playcare	-14.0942
▁blogger	-14.0942
▁lỳ	-14.0942
▁seven	-14.0942
▁count	-14.0942
▁chươ	-14.0942
▁fair	-14.0942
▁khệ	-14.0943
▁tẹt	-14.0943
▁đởm	-14.0943
▁golem	-14.0944
▁bengal	-14.0945
▁ox	-14.0946
ough	-14.0946
▁roai	-14.0948
▁tamley	-14.0949
lab	-14.0951
▁215	-14.0954
▁limit	-14.0955
pur	-14.0956
iya	-14.0962
kasa	-14.0963
▁case	-14.0968
▁ghẹ	-14.0972
▁quark	-14.0986
▁mén	-14.0996
▁merc	-14.1002
▁quạc	-14.1011
▁fact	-14.1015
▁france	-14.1019
gne	-14.1019
▁christin	-14.102
▁karin	-14.1044
▁hem	-14.1049
▁osam	-14.1059
skin	-14.106
▁kiss	-14.1074
húng	-14.1085
▁last	-14.1091
▁asha	-14.1093
▁gọ	-14.1098
ưỡng	-14.1098
▁sell	-14.1109
▁uv	-14.112
▁ngổ	-14.114
▁agassi	-14.1146
▁arcadi	-14.1146
▁aristoteles	-14.1146
▁armenia	-14.1146
▁atlantic	-14.1146
▁ayumu	-14.1146
▁cotton	-14.1146
▁dorothy	-14.1146
▁frederick	-14.1146
▁hanover	-14.1146
▁kaliningrad	-14.1146
▁ngật	-14.1146
▁ngậu	-14.1146
▁research	-14.1146
▁support	-14.1146
▁network	-14.1146
▁slime	-14.1146
▁winston	-14.1146
▁khướt	-14.1146
▁boxing	-14.1146
▁fisk	-14.1146
▁quẫy	-14.1146
▁cherry	-14.1146
▁usb	-14.1147
▁antony	-14.1147
▁ráy	-14.1147
▁nelo	-14.1147
▁khục	-14.1147
▁goá	-14.1147
▁panda	-14.1147
▁hotel	-14.1148
▁bẽo	-14.1148
▁echo	-14.1149
▁nuột	-14.115
▁hari	-14.115
▁fda	-14.115
▁dealer	-14.1153
▁panh	-14.1155
▁mủi	-14.1156
▁tracy	-14.1157
cky	-14.1159
▁wei	-14.1168
▁képe	-14.1169
▁trỏng	-14.1169
revo	-14.1188
▁chá	-14.1195
▁mitsu	-14.12
war	-14.1218
▁anton	-14.1221
▁vích	-14.1224
▁nhạ	-14.1246
▁ngoe	-14.1251
▁maru	-14.1271
sty	-14.1307
▁dớ	-14.1322
mười	-14.1323
▁brahma	-14.1326
kr	-14.1328
▁rui	-14.1339
▁nò	-14.1352
▁pov	-14.1353
▁amsterdam	-14.1354
▁bermuda	-14.1354
▁bậu	-14.1354
▁cocktail	-14.1354
▁collins	-14.1354
▁dvd	-14.1354
▁hassan	-14.1354
▁hubermann	-14.1354
▁inverter	-14.1354
▁khịa	-14.1354
▁nevada	-14.1354
▁oregon	-14.1354
▁volodymyr	-14.1354
▁central	-14.1354
▁radley	-14.1354
▁kamala	-14.1354
▁kitty	-14.1354
▁pinkie	-14.1354
▁aqua	-14.1354
▁susanoo	-14.1354
ulius	-14.1355
▁delay	-14.1355
▁ivy	-14.1355
▁xệch	-14.1355
▁samara	-14.1355
▁laurie	-14.1355
▁dỏng	-14.1355
▁single	-14.1355
▁alois	-14.1355
▁tĩu	-14.1355
▁made	-14.1356
▁beca	-14.1356
▁nash	-14.1361
▁nưa	-14.1365
▁ngoà	-14.1365
▁phành	-14.1374
▁móm	-14.1374
▁tué	-14.1379
▁xáp	-14.1386
▁bõ	-14.1392
▁nanami	-14.1394
▁soạng	-14.1397
▁quest	-14.14
coll	-14.1401
▁bear	-14.1401
ée	-14.1411
ềnh	-14.1417
▁photon	-14.1419
iga	-14.142
▁frie	-14.1422
▁tetsu	-14.1433
▁nail	-14.1433
ogo	-14.1445
▁kei	-14.149
ela	-14.1496
ude	-14.1497
▁gala	-14.1501
uha	-14.1502
▁woods	-14.151
▁nă	-14.1562
▁chử	-14.1562
▁guardian	-14.1566
▁bennett	-14.1567
▁clear	-14.1567
▁hulk	-14.1567
▁kobayashi	-14.1567
▁medvedev	-14.1567
▁neymar	-14.1567
▁ngoéo	-14.1567
▁nhụi	-14.1567
▁nicole	-14.1567
▁parkinson	-14.1567
▁pinocchio	-14.1567
▁profile	-14.1567
▁quéo	-14.1567
▁quắn	-14.1567
▁ragnarok	-14.1567
▁roblox	-14.1567
▁unesco	-14.1567
▁vivian	-14.1567
▁stuart	-14.1567
▁képork	-14.1567
▁heart	-14.1567
▁music	-14.1567
▁michelin	-14.1567
▁trét	-14.1567
▁winter	-14.1567
▁sugar	-14.1568
▁valeri	-14.1568
▁shiro	-14.1568
▁notion	-14.1568
▁gobi	-14.1569
▁lụp	-14.1569
▁uae	-14.1569
▁trức	-14.157
▁bẹt	-14.1573
▁auri	-14.1576
▁xỉnh	-14.1576
mira	-14.1576
▁thèn	-14.1578
▁hard	-14.1578
▁viking	-14.1579
▁indo	-14.158
xx	-14.158
riya	-14.1582
▁quèn	-14.159
itch	-14.1591
▁nhách	-14.1592
▁hoáy	-14.1594
uff	-14.1594
form	-14.1594
tex	-14.16
▁ark	-14.1616
▁dìa	-14.1627
▁wind	-14.1635
get	-14.1648
nya	-14.1652
▁stand	-14.1691
vre	-14.1696
▁sik	-14.1697
gger	-14.1712
ồ	-14.1736
uan	-14.1772
room	-14.1778
▁bâ	-14.1781
▁ngươn	-14.1783
▁xoàn	-14.1783
▁abram	-14.1784
▁agra	-14.1784
▁anubis	-14.1784
▁cristiano	-14.1784
▁function	-14.1784
▁milligan	-14.1784
▁mississippi	-14.1784
▁sịt	-14.1784
▁bbc	-14.1784
▁allah	-14.1784
▁stock	-14.1785
▁richie	-14.1785
▁moore	-14.1785
▁gucci	-14.1785
▁adler	-14.1785
▁kạn	-14.1785
▁gamelab	-14.1785
▁party	-14.1786
▁xất	-14.1786
▁akiko	-14.1786
▁chám	-14.1786
▁bương	-14.1786
▁xốt	-14.1786
bet	-14.1787
▁riley	-14.1787
▁human	-14.1787
▁bird	-14.1788
ớng	-14.1789
▁quạo	-14.1791
▁diếp	-14.1792
▁dít	-14.1794
▁khoé	-14.1794
▁nights	-14.1799
▁aster	-14.18
▁cùa	-14.1801
▁rox	-14.1803
▁rỉa	-14.1808
ption	-14.1808
▁gy	-14.1811
eman	-14.1874
▁mol	-14.189
▁113	-14.1903
▁miles	-14.1931
▁blu	-14.1937
ậy	-14.1978
▁114	-14.2004
▁khù	-14.2005
▁dominic	-14.2005
▁đỉ	-14.2005
▁đở	-14.2005
▁phỏ	-14.2005
▁dác	-14.2006
▁colombia	-14.2007
▁duật	-14.2007
▁french	-14.2007
▁hõm	-14.2007
▁makarov	-14.2007
▁nhẩy	-14.2007
▁rainbow	-14.2007
▁shibuya	-14.2007
▁whipping	-14.2007
▁photoshop	-14.2007
▁ishimura	-14.2007
▁everest	-14.2007
▁uranium	-14.2007
▁russell	-14.2007
▁christian	-14.2007
▁liến	-14.2007
orakura	-14.2007
▁reset	-14.2007
▁eben	-14.2007
▁evans	-14.2007
▁blade	-14.2007
▁fomo	-14.2007
▁xoong	-14.2007
▁wales	-14.2007
▁kiwi	-14.2007
▁animatronics	-14.2007
▁sergei	-14.2007
▁wish	-14.2007
▁riềng	-14.2007
worth	-14.2007
▁dougs	-14.2007
▁hamlet	-14.2008
▁edith	-14.2008
▁cdc	-14.2009
▁sahara	-14.2009
▁lới	-14.2009
▁iii	-14.2012
▁scare	-14.2012
name	-14.2015
cur	-14.2017
ậm	-14.2018
▁ego	-14.2019
▁ỉm	-14.2019
▁duvan	-14.2021
▁toẹt	-14.2021
▁nava	-14.2023
▁abd	-14.2023
▁mèm	-14.2024
ware	-14.203
▁lake	-14.2037
▁phơn	-14.2046
▁loá	-14.2047
▁pồ	-14.2059
hiko	-14.2065
▁prig	-14.2082
ục	-14.2094
▁mk	-14.2113
ôm	-14.2124
lise	-14.2143
une	-14.2151
▁bond	-14.2152
▁geo	-14.2162
ệm	-14.2163
▁gluco	-14.2186
▁put	-14.2195
▁wen	-14.2197
lux	-14.2198
▁kyu	-14.2203
▁pok	-14.2223
▁nghển	-14.223
▁vừ	-14.2232
▁offic	-14.2233
▁anatoly	-14.2234
▁baghdad	-14.2234
▁blackpink	-14.2234
▁corporation	-14.2234
▁ecuador	-14.2234
▁elliot	-14.2234
▁engine	-14.2234
▁hamilton	-14.2234
▁mallory	-14.2234
▁murakami	-14.2234
▁whisky	-14.2234
▁dáo	-14.2234
▁swan	-14.2234
▁playboy	-14.2234
▁medici	-14.2234
▁invest	-14.2234
▁rươi	-14.2234
▁castro	-14.2234
▁basil	-14.2234
▁cordel	-14.2234
▁isai	-14.2234
▁hụp	-14.2235
▁hiệt	-14.2235
▁guardians	-14.2235
▁europa	-14.2235
osé	-14.2236
▁indie	-14.2236
▁acb	-14.2237
▁moss	-14.2237
▁louise	-14.2237
▁cody	-14.2238
▁rocky	-14.2238
ppo	-14.224
▁aristo	-14.2246
▁qa	-14.2246
▁nesta	-14.2262
▁dôn	-14.2265
▁chẹ	-14.2275
▁nhồ	-14.2299
▁135	-14.2304
oài	-14.2323
tier	-14.2336
▁wars	-14.2371
latan	-14.2372
yosuke	-14.2402
iểm	-14.2405
ợp	-14.2419
fin	-14.242
old	-14.2422
▁shou	-14.2427
hộp	-14.2436
ivska	-14.2446
▁ngứ	-14.2465
▁niền	-14.2466
▁mikhail	-14.2466
▁cantona	-14.2466
▁caspi	-14.2466
▁chernobyl	-14.2466
▁develop	-14.2466
▁eleanor	-14.2466
▁gandhi	-14.2466
▁hernand	-14.2466
▁inugami	-14.2466
▁leader	-14.2466
▁missouri	-14.2466
▁nhụa	-14.2466
▁nựng	-14.2466
▁palace	-14.2466
▁rức	-14.2466
▁second	-14.2466
▁takahashi	-14.2466
▁teaser	-14.2466
unior	-14.2466
▁arnold	-14.2466
▁nượp	-14.2466
▁sunni	-14.2466
▁bridge	-14.2466
▁opila	-14.2467
▁rận	-14.2467
▁giắc	-14.2467
▁kiyok	-14.2467
▁tầy	-14.2467
▁toác	-14.2467
▁hiết	-14.2468
▁finn	-14.2468
▁match	-14.2469
▁icon	-14.2469
▁uber	-14.2471
▁ngỗi	-14.2472
▁lổng	-14.2473
▁phệt	-14.2475
ểm	-14.2476
▁yoko	-14.2477
▁xốn	-14.2478
▁hey	-14.248
▁vói	-14.2484
▁stre	-14.2493
▁yasuo	-14.2494
mai	-14.2495
uve	-14.2514
▁kumari	-14.2525
▁pick	-14.2533
ping	-14.2555
▁homer	-14.2557
▁evel	-14.2573
▁capi	-14.2597
▁trui	-14.2677
sson	-14.2685
▁mob	-14.2694
aiku	-14.2703
▁thườn	-14.2704
▁bedroom	-14.2705
▁chechnya	-14.2705
▁concept	-14.2705
▁dreamworks	-14.2705
▁harold	-14.2705
▁hlv	-14.2705
▁lionel	-14.2705
▁moscova	-14.2705
▁natasha	-14.2705
▁neutron	-14.2705
▁shakespeare	-14.2705
▁vốt	-14.2705
▁claude	-14.2705
▁infinit	-14.2705
▁usher	-14.2705
▁holland	-14.2705
▁shark	-14.2705
▁village	-14.2705
▁satama	-14.2705
▁after	-14.2705
▁katie	-14.2705
marck	-14.2705
▁măn	-14.2705
▁chễ	-14.2705
▁wiki	-14.2705
▁shot	-14.2705
▁hóp	-14.2705
▁satoshi	-14.2705
▁khoắt	-14.2706
▁touch	-14.2706
▁tiển	-14.2706
▁kamo	-14.2706
▁mết	-14.2706
▁yukio	-14.2707
▁képton	-14.2707
▁rùm	-14.2708
▁insta	-14.2708
▁rise	-14.271
▁rụm	-14.271
▁sỗ	-14.2712
▁xoái	-14.2712
▁delia	-14.2713
▁xính	-14.2714
▁rika	-14.2714
▁annie	-14.2722
▁thuân	-14.2724
▁connect	-14.2742
laire	-14.275
▁nhê	-14.2769
▁wan	-14.2808
▁đạ	-14.2824
ẹp	-14.2865
▁exp	-14.2878
▁lướ	-14.2878
horn	-14.2898
▁gui	-14.2904
ỏ	-14.2908
view	-14.2918
movie	-14.2925
uwai	-14.293
▁doug	-14.2931
andr	-14.2935
õng	-14.2946
▁chõ	-14.2947
▁virgin	-14.2947
▁ronald	-14.2948
▁abbie	-14.2948
▁akemi	-14.2948
▁baltimore	-14.2948
▁betty	-14.2948
▁bikini	-14.2948
▁borodin	-14.2948
▁cochin	-14.2948
▁creator	-14.2948
▁effect	-14.2948
▁esparvieu	-14.2948
▁federer	-14.2948
▁gudiya	-14.2948
▁gấc	-14.2948
▁kherson	-14.2948
▁képood	-14.2948
▁makoto	-14.2948
▁minecraft	-14.2948
▁peskov	-14.2948
▁ptolemy	-14.2948
▁service	-14.2948
▁silva	-14.2948
▁steiner	-14.2948
▁tsukuna	-14.2948
▁voldemort	-14.2948
loyd	-14.2948
▁keynes	-14.2948
▁kingpin	-14.2948
▁priva	-14.2949
▁darling	-14.2949
▁brent	-14.2949
▁tễnh	-14.2949
▁xược	-14.2949
▁pích	-14.2949
▁grow	-14.2949
▁dộng	-14.2949
▁naui	-14.295
▁amber	-14.295
▁pét	-14.295
▁xịch	-14.295
▁terra	-14.295
▁reed	-14.2951
▁urani	-14.2954
craft	-14.2954
▁feng	-14.2955
▁newman	-14.2955
▁samant	-14.2956
▁trồm	-14.2957
▁mém	-14.2968
▁hado	-14.2979
▁kel	-14.2983
apan	-14.3003
ffer	-14.3007
▁koo	-14.3071
alu	-14.3114
eta	-14.3149
▁flan	-14.3157
cat	-14.3163
play	-14.317
▁thă	-14.319
▁chuộn	-14.3197
▁barbie	-14.3198
▁bialik	-14.3198
▁bluetooth	-14.3198
▁bowling	-14.3198
▁côhưng	-14.3198
▁debuff	-14.3198
▁electric	-14.3198
▁gaddafi	-14.3198
▁gemini	-14.3198
▁krampus	-14.3198
▁lilith	-14.3198
▁minnesota	-14.3198
▁nguẩy	-14.3198
▁nintendo	-14.3198
▁password	-14.3198
▁rười	-14.3198
▁simmons	-14.3198
▁tolstoy	-14.3198
▁trẩm	-14.3198
▁xuyễn	-14.3198
▁fortune	-14.3198
▁klein	-14.3198
▁empire	-14.3198
▁garcia	-14.3198
▁asuka	-14.3199
▁ngưởng	-14.3199
▁lậm	-14.3199
▁chây	-14.3199
▁karate	-14.3199
▁center	-14.3199
▁mỳ	-14.3199
▁hựu	-14.32
▁gát	-14.32
▁natri	-14.32
▁sanche	-14.32
▁evn	-14.3201
▁matsu	-14.3201
▁ngoằng	-14.3201
▁idea	-14.3202
▁heal	-14.3202
▁rụa	-14.3203
▁tiki	-14.3204
▁hênh	-14.3206
▁timmy	-14.3206
▁thanos	-14.321
▁sudo	-14.3212
▁six	-14.322
rsi	-14.322
ucci	-14.3222
▁khov	-14.3222
lima	-14.324
▁mck	-14.3252
àng	-14.3253
▁locke	-14.3262
▁sonic	-14.3286
ạc	-14.3291
taro	-14.3305
pest	-14.3311
pes	-14.3318
heim	-14.3341
▁rệ	-14.3342
itska	-14.3344
lash	-14.3369
ash	-14.3376
▁now	-14.3392
rino	-14.3399
force	-14.3406
▁phớ	-14.3408
hab	-14.3421
bảy	-14.3424
ukai	-14.3436
cb	-14.3438
▁gó	-14.3451
▁tọ	-14.3452
▁nhù	-14.3454
▁calicut	-14.3455
▁daddy	-14.3455
▁drebber	-14.3455
▁foucault	-14.3455
▁friedman	-14.3455
▁hannah	-14.3455
▁huohuo	-14.3455
▁input	-14.3455
▁mameha	-14.3455
▁olympia	-14.3455
▁oách	-14.3455
▁phyllis	-14.3455
▁rướm	-14.3455
▁siddhartha	-14.3455
▁target	-14.3455
▁tiffany	-14.3455
▁utah	-14.3455
▁voltaire	-14.3455
▁walmart	-14.3455
▁bloomberg	-14.3455
▁dungeon	-14.3455
▁investment	-14.3455
▁wechat	-14.3455
▁vincent	-14.3455
▁xoạc	-14.3455
▁sharpie	-14.3455
▁michiko	-14.3455
▁why	-14.3455
▁topping	-14.3455
▁partner	-14.3455
▁value	-14.3455
▁hendra	-14.3455
▁trển	-14.3455
▁monster	-14.3455
▁algeria	-14.3455
▁oled	-14.3455
▁twin	-14.3455
▁witch	-14.3456
▁vưởng	-14.3456
hắm	-14.3456
▁nhùng	-14.3456
▁tọc	-14.3456
▁langston	-14.3457
▁dóc	-14.3457
▁uây	-14.3457
▁dích	-14.3458
▁sụa	-14.3458
▁khênh	-14.3458
▁tammy	-14.3459
▁ghè	-14.3459
chat	-14.3462
▁khủy	-14.3462
▁rế	-14.3462
▁eye	-14.3462
▁reno	-14.3466
▁nghìnđ	-14.3467
▁heron	-14.3471
apor	-14.3495
eanne	-14.3512
▁sikh	-14.3519
pl	-14.3562
▁xồ	-14.3568
gus	-14.3597
mart	-14.3627
shop	-14.3688
▁chù	-14.3706
▁hó	-14.371
ackpot	-14.3718
akhstan	-14.3718
efferson	-14.3718
▁bĩnh	-14.3718
▁bẫng	-14.3718
▁copernicus	-14.3718
▁litva	-14.3718
▁oxytocin	-14.3718
▁raspail	-14.3718
▁skibri	-14.3718
▁slogan	-14.3718
▁spotify	-14.3718
▁square	-14.3718
▁tennessee	-14.3718
▁thoreau	-14.3718
▁togashi	-14.3718
▁underground	-14.3718
▁vức	-14.3718
▁xuyết	-14.3718
▁xẩm	-14.3718
▁takagi	-14.3718
▁telepro	-14.3718
▁thuộm	-14.3718
▁ẹo	-14.3718
▁spirit	-14.3718
▁trỉ	-14.3718
▁clover	-14.3718
▁takeshi	-14.3718
▁alexandria	-14.3718
▁unix	-14.3718
▁donbass	-14.3718
▁thinking	-14.3718
▁stevenson	-14.3718
▁layout	-14.3719
▁hammond	-14.3719
▁hếch	-14.3719
▁nilon	-14.3719
▁schwa	-14.3719
▁under	-14.3719
▁face	-14.3719
▁offer	-14.3719
▁only	-14.3719
▁liếp	-14.3719
▁vòong	-14.3719
▁bonus	-14.372
▁uhai	-14.372
▁hẹo	-14.372
▁chái	-14.3721
▁clay	-14.3721
▁hanya	-14.3721
▁misha	-14.3722
▁gino	-14.3722
▁xống	-14.3723
scene	-14.3724
▁xoi	-14.3729
▁yale	-14.373
▁rộp	-14.3731
▁void	-14.3734
▁modi	-14.3736
dic	-14.3736
▁malay	-14.3736
▁ngườ	-14.3746
▁iot	-14.3747
aoka	-14.3756
tman	-14.3848
pro	-14.3851
▁lulu	-14.3853
aws	-14.3889
▁sồ	-14.3921
hần	-14.3927
ition	-14.3942
▁hế	-14.3944
ỉ	-14.3948
▁step	-14.3949
sáu	-14.3959
▁nhoà	-14.3965
ema	-14.3968
▁trỗ	-14.3986
▁animatronic	-14.3987
▁pí	-14.3988
▁acrylic	-14.3988
▁albedo	-14.3988
▁bolivia	-14.3988
▁bonello	-14.3988
▁brothers	-14.3988
▁clementine	-14.3988
▁dunning	-14.3988
▁dáy	-14.3988
▁epicurus	-14.3988
▁ernest	-14.3988
▁founder	-14.3988
▁frankfurt	-14.3988
▁insider	-14.3988
▁kabul	-14.3988
▁khén	-14.3988
▁krishna	-14.3988
▁latvia	-14.3988
▁logistic	-14.3988
▁manager	-14.3988
▁mckinsey	-14.3988
▁murray	-14.3988
▁netanyahu	-14.3988
▁nhẩu	-14.3988
▁serotonin	-14.3988
▁sevilla	-14.3988
▁truật	-14.3988
▁welcome	-14.3988
▁bcg	-14.3988
▁airbus	-14.3988
▁product	-14.3988
▁training	-14.3988
▁liện	-14.3988
▁bradley	-14.3988
▁everton	-14.3988
▁barnes	-14.3989
▁hý	-14.3989
▁sachs	-14.3989
▁kaori	-14.3989
▁robotine	-14.399
▁fake	-14.399
▁guru	-14.399
▁nft	-14.3991
▁dúm	-14.3992
▁rỉnh	-14.3993
▁mcu	-14.3994
▁chỏng	-14.3995
▁tanaka	-14.3995
▁síp	-14.3996
▁philips	-14.3996
▁sumo	-14.3997
▁psycholog	-14.3999
▁tvê	-14.3999
▁michi	-14.3999
▁diana	-14.4002
▁masu	-14.4017
▁idf	-14.4025
kli	-14.4028
▁kẹ	-14.4037
▁gla	-14.4053
▁comic	-14.4065
▁costa	-14.4072
uých	-14.4097
abad	-14.4141
mary	-14.4177
▁flame	-14.4197
cent	-14.4205
▁dồ	-14.4207
head	-14.4235
ủy	-14.4235
ovsky	-14.4239
▁pate	-14.4244
▁vâ	-14.4245
elvin	-14.4254
▁spoil	-14.4255
▁deal	-14.426
▁giỡ	-14.4261
▁hamburg	-14.4263
▁bloom	-14.4266
igsaw	-14.4266
▁atticus	-14.4266
▁bidv	-14.4266
▁brooklyn	-14.4266
▁capello	-14.4266
▁cheese	-14.4266
▁diamond	-14.4266
▁dẩy	-14.4266
▁eritrea	-14.4266
▁faraday	-14.4266
▁gardner	-14.4266
▁guinea	-14.4266
▁hobbes	-14.4266
▁international	-14.4266
▁kangaroo	-14.4266
▁kusanagi	-14.4266
▁mahal	-14.4266
▁oprah	-14.4266
▁papyrus	-14.4266
▁shrek	-14.4266
▁testosterone	-14.4266
▁inox	-14.4266
▁pixar	-14.4266
▁spotlight	-14.4266
▁beast	-14.4266
▁women	-14.4266
▁tablet	-14.4266
▁sarada	-14.4266
▁morning	-14.4266
▁redwood	-14.4266
▁aldin	-14.4266
▁flori	-14.4266
▁képant	-14.4267
▁cẫn	-14.4268
▁sasuke	-14.4268
▁ronin	-14.4268
▁tomohi	-14.4268
▁nị	-14.4268
▁trĩnh	-14.4268
▁stack	-14.4268
▁bụp	-14.4268
▁capro	-14.4269
▁rỏi	-14.4269
▁triêu	-14.4269
▁okada	-14.427
▁luka	-14.4271
▁machu	-14.4272
▁travel	-14.4273
▁kick	-14.4275
▁dết	-14.4277
▁catalog	-14.4279
umbo	-14.4306
▁papa	-14.4318
▁afk	-14.4327
▁quill	-14.4335
▁nest	-14.4364
▁royal	-14.4366
merton	-14.4366
sign	-14.4366
▁willie	-14.4366
asso	-14.4401
chai	-14.4408
▁kama	-14.4412
udy	-14.4417
▁lind	-14.4427
▁rôma	-14.4428
anup	-14.4434
uyệt	-14.4516
dragon	-14.4521
lumber	-14.4522
▁eve	-14.4529
▁ngú	-14.4551
▁đũ	-14.4551
▁armstrong	-14.4552
▁bangkok	-14.4552
▁dallas	-14.4552
▁dước	-14.4552
▁family	-14.4552
▁gibraltar	-14.4552
▁gunnar	-14.4552
▁gâm	-14.4552
▁hirohito	-14.4552
▁hẩm	-14.4552
▁magellan	-14.4552
▁melbourne	-14.4552
▁nâm	-14.4552
▁pacific	-14.4552
▁rodrigo	-14.4552
▁tatsushima	-14.4552
▁thénardier	-14.4552
▁ucraina	-14.4552
▁wendell	-14.4552
▁patriot	-14.4552
▁recommend	-14.4552
▁midori	-14.4552
▁edwin	-14.4552
▁hawking	-14.4552
▁xoè	-14.4552
▁royce	-14.4552
▁flag	-14.4552
▁roseto	-14.4552
▁right	-14.4552
▁nitro	-14.4553
▁cườm	-14.4553
▁four	-14.4554
▁vff	-14.4554
▁dới	-14.4555
▁cuột	-14.4557
▁2045	-14.4557
▁nhảu	-14.4561
▁salah	-14.4564
blit	-14.4564
▁maxim	-14.4572
▁pope	-14.4597
▁nhợ	-14.4603
▁martine	-14.47
chaku	-14.4738
▁petr	-14.4765
▁info	-14.4767
scher	-14.4771
allow	-14.4787
aifu	-14.4795
▁marsh	-14.4795
▁tồ	-14.4796
ùng	-14.4804
ưới	-14.4823
ẫm	-14.4841
▁tằn	-14.4845
ggy	-14.4846
▁chrome	-14.4846
▁bonaparte	-14.4846
▁buendía	-14.4846
▁bulgaria	-14.4846
▁campbell	-14.4846
▁dalio	-14.4846
▁distri	-14.4846
▁falcon	-14.4846
▁gould	-14.4846
▁hakkari	-14.4846
▁heather	-14.4846
▁hilton	-14.4846
▁limbic	-14.4846
▁lucifer	-14.4846
▁mediapie	-14.4846
▁ngoẹo	-14.4846
▁okinawa	-14.4846
▁public	-14.4846
▁píc	-14.4846
▁ramadan	-14.4846
▁ruốc	-14.4846
▁sholto	-14.4846
▁sigmund	-14.4846
▁universal	-14.4846
▁usubuki	-14.4846
▁weeaboo	-14.4846
▁wikipedia	-14.4846
▁wesley	-14.4846
▁iwa	-14.4846
▁morstan	-14.4846
▁stacy	-14.4846
▁xoẹt	-14.4846
▁setting	-14.4846
▁forest	-14.4846
▁christie	-14.4846
▁riền	-14.4846
▁crash	-14.4846
▁andrevê	-14.4846
▁office	-14.4847
▁niếm	-14.4847
▁aaa	-14.4847
▁pít	-14.4847
iễng	-14.4847
▁hoảnh	-14.4848
▁bược	-14.4848
▁riona	-14.4848
▁skip	-14.4848
▁shaw	-14.485
▁pitt	-14.4851
▁diềm	-14.4852
▁nghét	-14.4853
uva	-14.4872
ryu	-14.4919
▁amici	-14.4944
kho	-14.4946
kuto	-14.4976
▁kento	-14.4978
ững	-14.5042
ướt	-14.5115
cca	-14.513
▁chọ	-14.5136
▁hã	-14.5138
▁rừ	-14.5148
▁barrett	-14.5149
▁baskerville	-14.5149
▁brennan	-14.5149
▁brittany	-14.5149
▁constantinople	-14.5149
▁download	-14.5149
▁dái	-14.5149
▁ellie	-14.5149
▁england	-14.5149
▁esports	-14.5149
▁goebbels	-14.5149
▁guinness	-14.5149
▁habermas	-14.5149
▁hermes	-14.5149
▁highlands	-14.5149
▁hokkaido	-14.5149
▁kimberly	-14.5149
▁knox	-14.5149
▁lithium	-14.5149
▁luốc	-14.5149
▁mohamed	-14.5149
▁nbc	-14.5149
▁nùi	-14.5149
▁panasonic	-14.5149
▁pandora	-14.5149
▁penguin	-14.5149
▁petersburg	-14.5149
▁poirot	-14.5149
▁powerpoint	-14.5149
▁rốp	-14.5149
▁vampire	-14.5149
▁vanderbilt	-14.5149
▁vặc	-14.5149
▁double	-14.5149
▁vhs	-14.5149
▁lumpur	-14.5149
▁speak	-14.5149
▁monarch	-14.5149
▁boongke	-14.5149
▁selfie	-14.5149
▁asian	-14.5149
▁report	-14.5149
▁convert	-14.5149
▁disneyland	-14.5149
▁mitch	-14.5149
▁pết	-14.515
▁rệp	-14.515
▁lớt	-14.515
▁polar	-14.5151
▁stevens	-14.5152
▁okita	-14.5152
▁msi	-14.5156
spect	-14.5164
▁xụ	-14.5184
▁watcher	-14.519
▁never	-14.5198
enna	-14.5213
▁drone	-14.5222
▁carlo	-14.5238
devil	-14.525
000000	-14.5343
andro	-14.5349
▁belle	-14.5376
athy	-14.5397
saka	-14.5398
▁nằn	-14.546
▁aspirin	-14.5461
▁cindy	-14.5461
▁fidel	-14.5461
▁financi	-14.5461
▁griffin	-14.5461
▁hobbs	-14.5461
▁karakorum	-14.5461
▁kosovo	-14.5461
▁ndrf	-14.5461
▁nebula	-14.5461
▁nicolai	-14.5461
▁nightmare	-14.5461
▁pelé	-14.5461
▁penicillin	-14.5461
▁picnic	-14.5461
▁pochettino	-14.5461
▁reddit	-14.5461
▁rựa	-14.5461
▁spencer	-14.5461
▁stewart	-14.5461
▁sullivan	-14.5461
▁template	-14.5461
▁tunisia	-14.5461
▁vtc	-14.5461
▁xẩu	-14.5461
▁annika	-14.5461
▁vigil	-14.5461
▁bright	-14.5461
▁glitch	-14.5461
▁sherlock	-14.5461
▁rịn	-14.5461
▁panther	-14.5461
▁fern	-14.5462
▁krô	-14.5462
▁wanda	-14.5462
▁donut	-14.5462
▁gear	-14.5462
▁beeman	-14.5462
▁capra	-14.5462
▁attac	-14.5462
▁troăm	-14.5462
▁drop	-14.5462
▁browning	-14.5462
▁storm	-14.5462
▁leak	-14.5463
▁foxy	-14.5463
▁dreamy	-14.5463
▁dominica	-14.5463
▁inbox	-14.5463
▁rolls	-14.5463
▁fps	-14.5463
▁dps	-14.5464
▁russo	-14.5464
▁kuru	-14.5464
▁wells	-14.5465
▁samson	-14.5465
oster	-14.5468
rough	-14.5473
tsuko	-14.5479
▁dể	-14.5484
▁peric	-14.5498
▁label	-14.5507
hopper	-14.553
▁dru	-14.5541
kiya	-14.5553
▁charm	-14.5649
▁mode	-14.5717
▁katsu	-14.5721
▁rặn	-14.5783
▁simpson	-14.5783
iegler	-14.5784
▁assyria	-14.5784
▁bedelia	-14.5784
▁candida	-14.5784
▁cassandra	-14.5784
▁chatgpt	-14.5784
▁college	-14.5784
▁copenhagen	-14.5784
▁curie	-14.5784
▁cợn	-14.5784
▁dario	-14.5784
▁dắp	-14.5784
▁kansas	-14.5784
▁kharkiv	-14.5784
▁leslie	-14.5784
▁matthevê	-14.5784
▁maycomb	-14.5784
▁mountain	-14.5784
▁mowgli	-14.5784
▁ngoải	-14.5784
▁nẩm	-14.5784
▁phẩn	-14.5784
▁pát	-14.5784
▁pốt	-14.5784
▁rinaldi	-14.5784
▁rousseau	-14.5784
▁sahish	-14.5784
▁salvador	-14.5784
▁shinsengumi	-14.5784
▁shotgun	-14.5784
▁stapleton	-14.5784
▁sép	-14.5784
▁telomere	-14.5784
▁wisconsin	-14.5784
▁bubble	-14.5784
▁istar	-14.5784
▁otp	-14.5784
▁tcn	-14.5784
▁electronics	-14.5784
▁corio	-14.5784
▁katana	-14.5784
▁risto	-14.5784
▁snack	-14.5784
▁herbert	-14.5784
▁fantastic	-14.5784
▁isagi	-14.5784
▁design	-14.5784
▁freelancer	-14.5784
▁keith	-14.5784
▁valak	-14.5784
▁place	-14.5784
▁learn	-14.5784
▁goldman	-14.5784
▁khừ	-14.5784
▁item	-14.5785
▁htv	-14.5785
▁vitali	-14.5785
osephine	-14.5785
▁boros	-14.5785
▁harrison	-14.5785
▁gộc	-14.5785
▁phứ	-14.5785
▁remus	-14.5785
▁ximen	-14.5785
▁soán	-14.5786
▁nadia	-14.5786
uliet	-14.5786
▁ricky	-14.5787
▁champa	-14.5788
▁volt	-14.5788
▁purin	-14.5791
▁ranger	-14.5811
▁want	-14.5818
▁kind	-14.5836
arissa	-14.586
▁mcca	-14.5862
▁lĩ	-14.5868
tsky	-14.5879
▁iv	-14.5895
kami	-14.5902
▁topic	-14.5995
▁képar	-14.6072
lent	-14.6074
ẳ	-14.611
▁nuôn	-14.6117
▁tở	-14.6117
miko	-14.6117
▁drive	-14.6117
▁acheron	-14.6117
▁agatha	-14.6117
▁agribank	-14.6117
▁asgard	-14.6117
▁bakhmut	-14.6117
▁balkan	-14.6117
▁debut	-14.6117
▁dằm	-14.6117
▁economist	-14.6117
▁giuộc	-14.6117
▁hopkins	-14.6117
▁idaho	-14.6117
▁kiriko	-14.6117
▁lemuria	-14.6117
▁leroy	-14.6117
▁madonna	-14.6117
▁medina	-14.6117
▁messenger	-14.6117
▁narnia	-14.6117
▁nhoạng	-14.6117
▁roulette	-14.6117
▁safari	-14.6117
▁vleague	-14.6117
▁xấc	-14.6117
▁commit	-14.6117
▁legend	-14.6117
▁noritoshi	-14.6117
▁ralph	-14.6117
▁soảng	-14.6117
▁dodge	-14.6117
▁gustav	-14.6117
▁richmond	-14.6117
▁accent	-14.6117
▁ẻm	-14.6117
▁craig	-14.6117
▁iori	-14.6117
▁opec	-14.6117
▁nguýt	-14.6117
▁linux	-14.6117
▁tower	-14.6117
▁mendel	-14.6118
▁porn	-14.6118
sql	-14.6118
▁trược	-14.6118
▁nhắt	-14.6118
▁sharp	-14.6118
▁oắt	-14.6118
▁oslo	-14.6118
▁union	-14.6118
▁képls	-14.6118
▁pfi	-14.6119
▁motors	-14.6119
▁ngương	-14.6119
▁icy	-14.612
▁arena	-14.612
▁peres	-14.6121
▁holt	-14.6122
burn	-14.6156
ibn	-14.6195
walk	-14.6216
▁fili	-14.6283
kiko	-14.6306
toshi	-14.6329
▁dộ	-14.6343
ẫ	-14.6368
▁kelle	-14.6407
▁gamma	-14.6414
rkin	-14.6423
▁trậ	-14.6452
▁metal	-14.646
▁alabama	-14.6462
▁barberin	-14.6462
▁bayonetta	-14.6462
▁blinken	-14.6462
▁cecil	-14.6462
▁chicksaw	-14.6462
▁chụt	-14.6462
▁computer	-14.6462
▁doraemon	-14.6462
▁dổi	-14.6462
▁english	-14.6462
▁eugene	-14.6462
▁goethe	-14.6462
▁hercule	-14.6462
▁khoằm	-14.6462
▁khạng	-14.6462
▁kirito	-14.6462
▁lgbt	-14.6462
▁lundy	-14.6462
▁lympho	-14.6462
▁macdonald	-14.6462
▁nhẻm	-14.6462
▁postcard	-14.6462
▁ptahor	-14.6462
▁puppet	-14.6462
▁random	-14.6462
▁uefa	-14.6462
▁weekly	-14.6462
▁yanukovych	-14.6462
▁cycl	-14.6462
▁pippi	-14.6462
▁ọe	-14.6462
▁healthy	-14.6462
▁landmark	-14.6462
▁corona	-14.6462
▁scary	-14.6462
▁sanders	-14.6462
▁adrenaline	-14.6462
▁standard	-14.6462
▁wings	-14.6462
▁carmen	-14.6462
▁muỗm	-14.6462
oanne	-14.6462
▁fantas	-14.6462
▁remina	-14.6462
▁kurd	-14.6462
▁freebo	-14.6463
▁kiyosuke	-14.6463
▁guây	-14.6463
▁peso	-14.6463
▁monte	-14.6463
▁simpsons	-14.6463
▁dách	-14.6463
▁chẹp	-14.6463
▁fury	-14.6463
▁wada	-14.6464
▁fett	-14.6464
▁giạp	-14.6464
▁trạo	-14.6465
▁dất	-14.6465
film	-14.6465
▁muse	-14.6466
▁amato	-14.6466
▁planet	-14.647
uala	-14.6496
fore	-14.6509
obito	-14.6529
rubin	-14.662
olly	-14.6671
▁ferr	-14.6685
▁hĩ	-14.6704
ệch	-14.6708
shimoto	-14.6709
blanc	-14.6723
dier	-14.6742
▁lứ	-14.6817
▁xư	-14.6817
▁suý	-14.6818
▁afghan	-14.6819
▁agent	-14.6819
▁aureliano	-14.6819
▁budapest	-14.6819
▁doudna	-14.6819
▁dẹo	-14.6819
▁edinburgh	-14.6819
▁fowler	-14.6819
▁givanium	-14.6819
▁gmail	-14.6819
▁goép	-14.6819
▁henderson	-14.6819
▁iowa	-14.6819
▁kenneth	-14.6819
▁leicester	-14.6819
▁monroe	-14.6819
▁nghành	-14.6819
▁nicolas	-14.6819
▁nobita	-14.6819
▁nậu	-14.6819
▁paimon	-14.6819
▁pút	-14.6819
▁recall	-14.6819
▁return	-14.6819
▁scarab	-14.6819
▁tocqueville	-14.6819
▁trinity	-14.6819
▁trắm	-14.6819
▁waterloo	-14.6819
▁securit	-14.6819
▁multiverse	-14.6819
▁ericsson	-14.6819
▁morrow	-14.6819
▁tiêuanh	-14.6819
▁christmas	-14.6819
▁farber	-14.6819
▁burns	-14.6819
▁hiroki	-14.6819
▁frost	-14.6819
▁wheeler	-14.6819
▁marxist	-14.682
▁becky	-14.682
▁chầy	-14.682
▁driver	-14.682
▁select	-14.682
▁hăn	-14.682
▁summer	-14.682
▁ngòai	-14.682
▁steel	-14.682
▁suýp	-14.682
▁citi	-14.682
▁washi	-14.682
▁verna	-14.682
▁riêm	-14.6821
▁shiba	-14.6821
▁erik	-14.6821
▁trust	-14.6822
minal	-14.6823
▁fax	-14.6823
ursu	-14.6827
▁clar	-14.6834
▁text	-14.6835
▁ott	-14.6838
amada	-14.6859
uffalo	-14.6872
▁denis	-14.6873
▁etc	-14.6876
afia	-14.6942
tuber	-14.6962
antes	-14.6993
▁nhậ	-14.715
stream	-14.7159
world	-14.7159
▁rank	-14.7166
▁nghì	-14.7184
▁dừ	-14.7188
arossi	-14.719
▁aubels	-14.719
▁canyon	-14.719
▁challenge	-14.719
▁cinema	-14.719
▁detroit	-14.719
▁fernando	-14.719
▁fructose	-14.719
▁ghibli	-14.719
▁hanamichi	-14.719
▁hebrew	-14.719
▁hippie	-14.719
▁holiday	-14.719
▁instruments	-14.719
▁kentucky	-14.719
▁know	-14.719
▁leadville	-14.719
▁lolita	-14.719
▁lấu	-14.719
▁mahoraga	-14.719
▁malcolm	-14.719
▁management	-14.719
▁maskva	-14.719
▁mcmurdo	-14.719
▁migration	-14.719
▁milton	-14.719
▁mothman	-14.719
▁omaha	-14.719
▁onimaru	-14.719
▁orange	-14.719
▁orbán	-14.719
▁ounce	-14.719
▁penacony	-14.719
▁plymouth	-14.719
▁rooney	-14.719
▁sapeco	-14.719
▁sicily	-14.719
▁sigma	-14.719
▁smithsonian	-14.719
▁socola	-14.719
▁stauffenberg	-14.719
▁trẹo	-14.719
▁usuboki	-14.719
▁vancouver	-14.719
▁vietgap	-14.719
▁vodka	-14.719
▁wittgenstein	-14.719
▁xớt	-14.719
▁yokohama	-14.719
▁ôtô	-14.719
▁aurora	-14.719
▁document	-14.719
▁eagle	-14.719
▁speed	-14.719
▁wilhelm	-14.719
▁writer	-14.719
▁pascal	-14.719
▁cardano	-14.719
▁catalan	-14.719
▁workstation	-14.719
▁geico	-14.719
▁esuko	-14.719
▁lỉ	-14.719
▁princeton	-14.719
▁wonder	-14.719
▁giớ	-14.719
▁percy	-14.719
▁breton	-14.719
▁khểnh	-14.719
▁morata	-14.719
▁gậm	-14.719
▁letter	-14.719
▁brownie	-14.719
▁medica	-14.719
▁wayne	-14.7191
▁german	-14.7191
▁ginny	-14.7191
▁silas	-14.7191
▁piani	-14.7191
stead	-14.7208
▁abdul	-14.7252
stance	-14.7259
▁đườ	-14.7265
etsu	-14.7274
rant	-14.7339
frit	-14.7372
▁spiru	-14.7408
▁khủ	-14.7563
▁khỏ	-14.7566
▁nghẽ	-14.7568
▁claudi	-14.7573
abbix	-14.7574
acques	-14.7574
▁achilles	-14.7574
▁adybska	-14.7574
▁atreus	-14.7574
▁bonsai	-14.7574
▁chocolate	-14.7574
▁dillon	-14.7574
▁endorphin	-14.7574
▁entertainment	-14.7574
▁friedrich	-14.7574
▁fsoft	-14.7574
▁fukushima	-14.7574
▁garrone	-14.7574
▁gitlab	-14.7574
▁giêxu	-14.7574
▁giít	-14.7574
▁goblin	-14.7574
▁habits	-14.7574
▁harmon	-14.7574
▁khật	-14.7574
▁leviathan	-14.7574
▁luckin	-14.7574
▁ludwig	-14.7574
▁luffy	-14.7574
▁montreal	-14.7574
▁necromorph	-14.7574
▁nfl	-14.7574
▁photocopy	-14.7574
▁platini	-14.7574
▁pomodoro	-14.7574
▁quặp	-14.7574
▁rohingya	-14.7574
▁serena	-14.7574
▁stalingrad	-14.7574
▁supreme	-14.7574
▁tharnis	-14.7574
▁torrio	-14.7574
▁tõm	-14.7574
▁vietcombank	-14.7574
▁yuratin	-14.7574
atomic	-14.7574
▁balvê	-14.7574
▁lancet	-14.7574
▁discord	-14.7574
▁kubian	-14.7574
▁uptren	-14.7574
▁ộp	-14.7574
▁paradis	-14.7574
▁glenn	-14.7574
▁ioc	-14.7574
▁remote	-14.7574
▁login	-14.7574
▁blackrock	-14.7574
▁glass	-14.7574
▁haruki	-14.7574
▁rẫm	-14.7574
▁teddy	-14.7575
▁denver	-14.7575
▁brush	-14.7575
▁skype	-14.7575
▁kenshin	-14.7575
▁vasil	-14.7575
▁kanata	-14.7575
▁sirius	-14.7575
▁creati	-14.7575
▁cerv	-14.7575
agyu	-14.7575
▁shane	-14.7575
▁owen	-14.7576
▁direct	-14.7576
▁samari	-14.7576
▁domain	-14.7576
▁control	-14.758
▁malik	-14.7586
▁ghệ	-14.7613
▁hermi	-14.7633
▁wait	-14.7688
iving	-14.7738
llant	-14.7792
▁marine	-14.7849
hira	-14.7885
▁afd	-14.7889
không	-14.7944
ỹ	-14.7969
▁dỏ	-14.7971
offany	-14.7974
▁abbott	-14.7974
▁agnes	-14.7974
▁albania	-14.7974
▁asmodeus	-14.7974
▁bartender	-14.7974
▁batista	-14.7974
▁beutler	-14.7974
▁blockbuster	-14.7974
▁borei	-14.7974
▁chicken	-14.7974
▁dumbledore	-14.7974
▁ebay	-14.7974
▁education	-14.7974
▁giốc	-14.7974
▁gẩy	-14.7974
▁hector	-14.7974
▁holocaust	-14.7974
▁khọm	-14.7974
▁knuckle	-14.7974
▁natsume	-14.7974
▁neighbor	-14.7974
▁nobara	-14.7974
▁normal	-14.7974
▁oppenheimer	-14.7974
▁present	-14.7974
▁renslayer	-14.7974
▁roswell	-14.7974
▁shihou	-14.7974
▁somalia	-14.7974
▁stalker	-14.7974
▁thompson	-14.7974
▁usonia	-14.7974
▁vnpt	-14.7974
▁calvin	-14.7974
▁champagne	-14.7974
▁knock	-14.7974
▁magma	-14.7974
racula	-14.7974
▁dagon	-14.7974
▁nagasaki	-14.7974
▁granite	-14.7974
▁premium	-14.7974
▁ntn	-14.7974
▁midas	-14.7974
▁study	-14.7974
▁khọt	-14.7975
▁holder	-14.7975
▁powell	-14.7975
▁borg	-14.7975
▁devop	-14.7975
aspar	-14.7975
▁analog	-14.7975
▁hawk	-14.7976
▁toulo	-14.7976
strom	-14.799
interest	-14.8008
▁shyam	-14.8012
bos	-14.8049
▁marti	-14.8094
▁rượ	-14.8099
minus	-14.8103
lore	-14.8125
unak	-14.8143
▁nhâ	-14.8156
hẹt	-14.8277
▁ngoá	-14.8351
food	-14.836
▁nhướn	-14.839
▁argenti	-14.8391
▁aegis	-14.8391
▁alfie	-14.8391
▁amorth	-14.8391
▁atalanta	-14.8391
▁brexit	-14.8391
▁brooks	-14.8391
▁caffeine	-14.8391
▁caribbean	-14.8391
▁cicd	-14.8391
▁clericuccio	-14.8391
▁cornell	-14.8391
▁dioxide	-14.8391
▁entry	-14.8391
▁franchise	-14.8391
▁frankenstein	-14.8391
▁geisha	-14.8391
▁godbole	-14.8391
▁gớt	-14.8391
▁hampshire	-14.8391
▁heathcliff	-14.8391
▁kendall	-14.8391
▁képhisky	-14.8391
▁lawrence	-14.8391
▁marseille	-14.8391
▁mount	-14.8391
▁nghẹo	-14.8391
▁ngén	-14.8391
▁ontario	-14.8391
▁orlando	-14.8391
▁overthinking	-14.8391
▁pharma	-14.8391
▁rật	-14.8391
▁sibiri	-14.8391
▁siềng	-14.8391
▁slovakia	-14.8391
▁sparkle	-14.8391
▁tabasca	-14.8391
▁thothmes	-14.8391
▁thoắng	-14.8391
▁westmoreland	-14.8391
▁adele	-14.8391
▁mpv	-14.8391
▁philosoph	-14.8391
▁blend	-14.8391
▁bavaria	-14.8391
▁workshop	-14.8391
▁modern	-14.8391
▁color	-14.8391
▁taleb	-14.8391
▁snowden	-14.8391
pilot	-14.8391
▁hades	-14.8391
▁butler	-14.8391
▁yasuko	-14.8391
▁brody	-14.8391
▁principle	-14.8398
owski	-14.8407
▁mằn	-14.8429
hiều	-14.8443
▁frey	-14.8531
uýt	-14.8596
gười	-14.8825
▁creepy	-14.8826
udgement	-14.8826
upiter	-14.8826
▁amakasu	-14.8826
▁baptist	-14.8826
▁bestseller	-14.8826
▁bethesda	-14.8826
▁celine	-14.8826
▁chikako	-14.8826
▁curry	-14.8826
▁easy	-14.8826
▁entropy	-14.8826
▁exorcist	-14.8826
▁filter	-14.8826
▁gothic	-14.8826
▁gromeko	-14.8826
▁himel	-14.8826
▁hoover	-14.8826
▁itadori	-14.8826
▁kashmir	-14.8826
▁keyword	-14.8826
▁klopp	-14.8826
▁ktqs	-14.8826
▁michelangelo	-14.8826
▁monkey	-14.8826
▁moscovê	-14.8826
▁nasdaq	-14.8826
▁oddworld	-14.8826
▁oswald	-14.8826
▁patricia	-14.8826
▁pharaon	-14.8826
▁pittsburgh	-14.8826
▁purple	-14.8826
▁sephora	-14.8826
▁sirenix	-14.8826
▁sorry	-14.8826
▁spaghetti	-14.8826
▁syrup	-14.8826
▁thẩy	-14.8826
▁tokugawa	-14.8826
▁two	-14.8826
▁university	-14.8826
▁xoàm	-14.8826
▁bhag	-14.8826
▁gmc	-14.8826
▁viltrum	-14.8826
okovic	-14.8826
▁bipi	-14.8826
▁otc	-14.8826
▁tnt	-14.8826
▁emmett	-14.8826
ẩ	-16.2898
ặ	-16.2899
ố	-16.29
ấ	-16.2901
